{
  "</s>": 0,
  "<unk>": 1,
  ".": 2,
  "\u2581de": 3,
  ">>ara<<": 4,
  ",": 5,
  "\u2581la": 6,
  "\u2581'": 7,
  "\u060c": 8,
  "\u2581et": 9,
  "\u2581des": 10,
  "'": 11,
  "\u2581\u0641\u064a": 12,
  "\u2581l": 13,
  "\u2581les": 14,
  "\u2581\u00e0": 15,
  "\u2581le": 16,
  "\u2581\u0645\u0646": 17,
  "\u2581d": 18,
  "\u2581du": 19,
  "\u2581en": 20,
  "\u2581-": 21,
  "\u2581(": 22,
  "\u2581\u0639\u0644\u0649": 23,
  "\u2581que": 24,
  "\u2581pour": 25,
  "\u2581\u0623\u0646": 26,
  ")": 27,
  "-": 28,
  "\u2581a": 29,
  "\u2581dans": 30,
  "\u2581\u0625\u0644\u0649": 31,
  "\u2581au": 32,
  "\u064b": 33,
  "\u2581un": 34,
  "\u2581sur": 35,
  "/": 36,
  "\u2581par": 37,
  "\u2581\u0648": 38,
  "\u2581une": 39,
  "\u2581qui": 40,
  "s": 41,
  "\u2581\u0627\u0644\u062a\u064a": 42,
  "\u2581aux": 43,
  "\u2581est": 44,
  "\u0629": 45,
  "\u2581pas": 46,
  "\u0647": 47,
  "\u2581\u0639\u0646": 48,
  "\u0627": 49,
  "\u2581\"": 50,
  "\u2581qu": 51,
  "\u064f": 52,
  "\u2581\u0644\u0627": 53,
  "\u2581\u0627\u0644\u0645\u062a\u062d\u062f\u0629": 54,
  "\u2581Le": 55,
  "\u0647\u0627": 56,
  "\u064a": 57,
  "\u0651": 58,
  "\u2581\u0647\u0630\u0627": 59,
  "\u2581ce": 60,
  "\u2581?": 61,
  "\u2581\u0623\u0648": 62,
  "\u2581": 63,
  "\u2581ne": 64,
  "\u2581\u0630\u0644\u0643": 65,
  "\u2581ont": 66,
  "\u2581\u0645\u0627": 67,
  "est": 68,
  "\u061f": 69,
  "\u2581\u0627\u0644\u0623\u0645\u0645": 70,
  "\u2581\u00e9t\u00e9": 71,
  "\u061b": 72,
  "\u2581ou": 73,
  "\u2581s": 74,
  "\u2581il": 75,
  ";": 76,
  "\u064e": 77,
  "\u2581plus": 78,
  "\u2581avec": 79,
  "\u2581\u0647\u0630\u0647": 80,
  "\u2581sont": 81,
  "\u2581Je": 82,
  "\u2581n": 83,
  "\u2581\u0645\u0639": 84,
  ":": 85,
  "\u2581pays": 86,
  "\u2581Il": 87,
  "\u0627\u062a": 88,
  "\u0640": 89,
  "\u2581La": 90,
  "\u2581\u0627\u0644\u0644\u062c\u0646\u0629": 91,
  "\u2581\u0628": 92,
  "\u2581Les": 93,
  "\u2581d\u00e9veloppement": 94,
  "\u064a\u0646": 95,
  "\u2581\u0627\u0644\u0630\u064a": 96,
  "\u2581se": 97,
  "\u2581Nations": 98,
  "\u2581\u0644": 99,
  "\u2581Unies": 100,
  "\u2019": 101,
  "\u2581C": 102,
  "\u2581droits": 103,
  "\u2581:": 104,
  "\u062a": 105,
  "\u2581\u0628\u064a\u0646": 106,
  "\u2581\u0648\u0641\u064a": 107,
  "\u0650": 108,
  "\u2581\u063a\u064a\u0631": 109,
  "\u2581\u00eatre": 110,
  "\u2581\u00c9tats": 111,
  "\u2581sa": 112,
  "\u2581\u0627\u0644\u0639\u0627\u0645\u0629": 113,
  "\u2581Comit\u00e9": 114,
  "\u2581\u0628\u0634\u0623\u0646": 115,
  "...": 116,
  "e": 117,
  "\u2581leur": 118,
  "\u2581son": 119,
  "\u2581L": 120,
  "\u2581\u0644\u0645": 121,
  "\u2581fait": 122,
  "\u0643": 123,
  "\u2581je": 124,
  "\u2581Conseil": 125,
  "\u2581vous": 126,
  "\u2581ces": 127,
  "\u25811": 128,
  "\u0646": 129,
  "\u2581\u0627\u0644\u0639\u0627\u0645": 130,
  "\u2581\u064a": 131,
  "\u2581!": 132,
  "\u2581.": 133,
  "\u2581\u062a": 134,
  "\u2581y": 135,
  "\u2581c": 136,
  "\u0648\u0646": 137,
  "\u2581A": 138,
  "\u2581cette": 139,
  "\u2581ses": 140,
  "a": 141,
  "\u0645": 142,
  "\u0628": 143,
  "\u2581rapport": 144,
  "\u2581s\u00e9curit\u00e9": 145,
  "\u2581faire": 146,
  "\u064a\u0629": 147,
  "\u2581\u0639\u0627\u0645": 148,
  "\u2581\u060c": 149,
  "il": 150,
  "\u2581autres": 151,
  "\u2581\u0627\u0644\u062f\u0648\u0644": 152,
  ").": 153,
  "\u2581\u0623\u064a\u0636\u0627": 154,
  "\u2581\u0627\u0644\u0625\u0646\u0633\u0627\u0646": 155,
  "\u2581\u0627\u0644\u062f\u0648\u0644\u064a\u0629": 156,
  "\u062f": 157,
  "\u2581comme": 158,
  "\u2581\u0645": 159,
  "\u2581entre": 160,
  "\u2581\u0627\u0644\u0639\u0645\u0644": 161,
  "\u2581non": 162,
  "\u2581\u0627\u0644\u062f\u0648\u0644\u064a": 163,
  "\u2581g\u00e9n\u00e9ral": 164,
  "\u0646\u0627": 165,
  "\u2581\u0643\u0644": 166,
  "\u2581nous": 167,
  "\u2581\u0643\u0627\u0646": 168,
  "\u2581\u0627\u0644": 169,
  "\u2581)": 170,
  "\u2581tous": 171,
  "\u2581\u061f": 172,
  "\u2581\u062c\u0645\u064a\u0639": 173,
  "ai": 174,
  "\u2581femmes": 175,
  "un": 176,
  "\u2581En": 177,
  "\u2581\u0623\u062c\u0644": 178,
  "\u2581Commission": 179,
  "\u0647\u0645": 180,
  "(": 181,
  "\u2581contre": 182,
  "\u2581droit": 183,
  "\u2581\u0642\u062f": 184,
  "\u2581r\u00e9solution": 185,
  "\u2581\u0628\u0645\u0627": 186,
  "\u2581\u0627\u0644\u0628\u0644\u062f\u0627\u0646": 187,
  "\u2581\u0625\u0646": 188,
  "\u2581\u062d\u0642\u0648\u0642": 189,
  "\u2581\u0623": 190,
  "\u2581\u0623\u064a": 191,
  "\u0640\u0640": 192,
  "\u2581ainsi": 193,
  "\u2581\u0627\u0644\u0623\u0648\u0644": 194,
  "\u2581leurs": 195,
  "\u25812": 196,
  "\u2581travail": 197,
  "\u2581\u0647\u0648": 198,
  "\u2581\u0648\u0627\u0644": 199,
  "A": 200,
  "\u2581mesures": 201,
  "\u2581\u00e9galement": 202,
  "\u0648\u0627": 203,
  "\u2581g\u00e9n\u00e9rale": 204,
  "\u2581tu": 205,
  "\u2581activit\u00e9s": 206,
  "\u2581session": 207,
  "\u25813": 208,
  "\u2581Tu": 209,
  "\u2581tout": 210,
  "\u2581J": 211,
  "\u2581>": 212,
  "\u2581\u0623\u0646\u0647": 213,
  "\u2581internationale": 214,
  "\u2581M": 215,
  "\u2581<": 216,
  "?": 217,
  "\u0623": 218,
  "\u2581si": 219,
  "\u2581\u0648\u0642\u062f": 220,
  "\u2581bien": 221,
  "\u2581Secr\u00e9taire": 222,
  "\u2581\u062e\u0644\u0627\u0644": 223,
  "\u25814": 224,
  "\u2581\u0644\u0644": 225,
  "\u2581mais": 226,
  "\u2581\u0641\u064a\u0645\u0627": 227,
  "\u2581\u00e7a": 228,
  "\u2581\u0627\u0644\u062c\u0645\u0639\u064a\u0629": 229,
  "\u0644": 230,
  "\u2581\u0643\u0645\u0627": 231,
  "\u25815": 232,
  "\u0631": 233,
  "\u2581projet": 234,
  "\u2581\u0627\u0644\u0645\u062a\u0639\u0644\u0642\u0629": 235,
  "\u2581\u0627\u0644\u0645": 236,
  "\u2581Convention": 237,
  "\u2581\u0627\u0644\u0623\u0645\u0646": 238,
  "\u2581services": 239,
  "\u2581\u0628\u0627\u0644": 240,
  "\u2581notamment": 241,
  "\u2581\u0628\u0647\u0627": 242,
  "\u2581\u0645\u062c\u0644\u0633": 243,
  "\u2581peut": 244,
  "\u2581elle": 245,
  "\u2581\u0628\u0623\u0646": 246,
  "\u2581homme": 247,
  "\u2581\u0627\u0644\u0623\u0637\u0631\u0627\u0641": 248,
  "!": 249,
  "\u2581paix": 250,
  "\u2581\u0627\u0644\u0623\u0645\u064a\u0646": 251,
  "\u2581\u0627\u0644\u0645\u062c\u0644\u0633": 252,
  "\u2581\u00e9tait": 253,
  "\u2581dont": 254,
  "\u2581\u064a\u0645\u0643\u0646": 255,
  "\u2581\u0623\u0646\u0627": 256,
  "\u2581On": 257,
  "\u0627\u0646": 258,
  "\u2581\u0647\u0644": 259,
  "\u2581lui": 260,
  "\u062c": 261,
  "\u2581international": 262,
  "\u2581\u0628\u0639\u062f": 263,
  "\u0649": 264,
  "\u2581mise": 265,
  "\u2581deux": 266,
  "\u2581personnes": 267,
  "\u2581questions": 268,
  "),": 269,
  "\u2581\u062a\u0644\u0643": 270,
  "\"": 271,
  "\u2581\u062a\u0646\u0641\u064a\u0630": 272,
  "\u2581aussi": 273,
  "\u2581\u0644\u0642\u062f": 274,
  "\u2581\u0627\u0644\u0645\u0627\u062f\u0629": 275,
  "\u2581\u0641\u064a\u0647\u0627": 276,
  "\u2581\u064a\u0627": 277,
  "\u2581ressources": 278,
  "\u25816": 279,
  "\u2581membres": 280,
  "\u0652": 281,
  "\u2581on": 282,
  "\u2581\u0627\u0644\u0648\u0637\u0646\u064a\u0629": 283,
  "une": 284,
  "\u2581enfants": 285,
  "\u2581\u0627\u0644\u062b\u0627\u0646\u064a": 286,
  "\u2581partie": 287,
  "\u2581m\u00eame": 288,
  "\u2581sous": 289,
  "\u258110": 290,
  "\u2581\u064a\u062a\u0639\u0644\u0642": 291,
  "\u2581concernant": 292,
  "\u2581\u00c0": 293,
  "\u2581coop\u00e9ration": 294,
  "\u2581\u0623\u062e\u0631\u0649": 295,
  "C": 296,
  "\u2581\u0630\u0627\u062a": 297,
  "\u2581toutes": 298,
  "\u2581compte": 299,
  "\u2581\u0648\u0645\u0646": 300,
  "\u2581cadre": 301,
  "\u2581\u0627\u0644\u0642\u0631\u0627\u0631": 302,
  "\u2581jour": 303,
  "\u2581question": 304,
  "\u2581\u0647\u064a": 305,
  "\u2581\u0645\u0634\u0631\u0648\u0639": 306,
  "\u2581avait": 307,
  "\u0627\u0644": 308,
  "\u2581\u0625\u0630\u0627": 309,
  "\u2581Groupe": 310,
  "\u2581\u0648\u0644\u0627": 311,
  "\u2581\u0646": 312,
  "en": 313,
  "\u25817": 314,
  "\u258115": 315,
  "\u2581\u0643\u0627\u0646\u0648\u0646": 316,
  "\u2581S": 317,
  "\u2581\u0627\u0644\u0645\u0639\u0644\u0648\u0645\u0627\u062a": 318,
  "\u2581cas": 319,
  "\u2581\u0639\u0645\u0644": 320,
  "\u2581\u0627\u0644\u0642\u0627\u0646\u0648\u0646": 321,
  "\u2581dollars": 322,
  "\u2581\u0647\u0646\u0627\u0643": 323,
  "\u2581me": 324,
  "\u2581j": 325,
  "es": 326,
  "\u2581programmes": 327,
  "\u0651\u064e": 328,
  "\u25818": 329,
  "\u2581\u0645\u062c\u0627\u0644": 330,
  "\u2581\u0627\u0644\u0641\u0642\u0631\u0629": 331,
  "\u2581politiques": 332,
  "er": 333,
  "\u2581sans": 334,
  "\u2581\u062a\u0642\u0631\u064a\u0631": 335,
  "\u2581\u0643\u0627\u0646\u062a": 336,
  "\u2581\u0627\u0644\u062a\u0646\u0645\u064a\u0629": 337,
  "\u2581\u00c9tat": 338,
  "\u2581\u0625\u0637\u0627\u0631": 339,
  "\u2581Dans": 340,
  "\u2581mati\u00e8re": 341,
  "\u2581\u0627\u0644\u0645\u0627\u0626\u0629": 342,
  "\u2581Et": 343,
  "\u2581\u064a\u0646\u0628\u063a\u064a": 344,
  "\u2581\u0627\u0646": 345,
  "\u2581syst\u00e8me": 346,
  "\u2581\u0627\u0644\u0633\u0644\u0627\u0645": 347,
  "\u2581\u0627\u0644\u0623\u0639\u0645\u0627\u0644": 348,
  "\u2581\u0628\u0639\u0636": 349,
  "\u2581Conf\u00e9rence": 350,
  "\u2581Vous": 351,
  "\u2581Gouvernement": 352,
  "\u2581soit": 353,
  "\u0648": 354,
  "\u2581afin": 355,
  "\u2581Pr\u00e9sident": 356,
  "\u2581\u062a\u0639\u0632\u064a\u0632": 357,
  "\u2581suis": 358,
  "\u2581,": 359,
  "\u2581\u0627\u0644\u062f\u0648\u0644\u0629": 360,
  "\u2581cours": 361,
  "\u2581nombre": 362,
  "\u2581\u00e9conomique": 363,
  "\u2581\u062f\u0648\u0644\u0627\u0631": 364,
  "\u2581\u0628\u0631\u0646\u0627\u0645\u062c": 365,
  "\u2581Assembl\u00e9e": 366,
  "\u2581m": 367,
  "\u2581organisations": 368,
  "\u25819": 369,
  "\u2581\u0627\u0644\u062e\u0627\u0635": 370,
  "y": 371,
  "\u2581\u0641": 372,
  "\u2581programme": 373,
  "\u2581\u0644\u062c\u0646\u0629": 374,
  ")\u060c": 375,
  "\u2581\u0627\u0644\u062e\u0627\u0635\u0629": 376,
  "\u2581Elle": 377,
  "L": 378,
  "\u2581\u0627\u0644\u0622\u0646": 379,
  "\u2581situation": 380,
  "\u2581particulier": 381,
  "\u2581b": 382,
  "\u2581\u0627\u0644\u0623\u0639\u0636\u0627\u0621": 383,
  "\u2581Nous": 384,
  "\u2581\u0627\u0644\u0645\u0631\u0623\u0629": 385,
  "\u2581parties": 386,
  "\u2581ils": 387,
  "\u2581paragraphe": 388,
  "\u2581\u0623\u0646\u062a": 389,
  "\u258130": 390,
  "\u2581\u0628\u0647": 391,
  "\u2581\u0641\u0625\u0646": 392,
  "\u2581\u0642\u0628\u0644": 393,
  "\u2581o\u00f9": 394,
  "\u2581\u064a\u0643\u0648\u0646": 395,
  "\u2581gestion": 396,
  "\u2581\u0647\u0646\u0627": 397,
  "\u2581\u0639\u0644\u064a\u0647\u0627": 398,
  "\u2581R\u00e9publique": 399,
  "\u2581\u062a\u0642\u062f\u064a\u0645": 400,
  "\u2581\u0639\u062f\u062f": 401,
  "\u2581protection": 402,
  "\u2581doit": 403,
  "\u2581vue": 404,
  "\u2581\u0627\u0644\u0633\u064a\u062f": 405,
  "\u2581\u0627\u0644\u062a\u0639\u0627\u0648\u0646": 406,
  "\u2581\u0639\u0645\u0644\u064a\u0629": 407,
  "\u2581[": 408,
  "\u2581\u0627\u0644\u0623\u062e\u0631\u0649": 409,
  "\u2581\u0648\u0623\u0646": 410,
  "\u2581\u0153uvre": 411,
  "\u2581niveau": 412,
  "\u258112": 413,
  "S": 414,
  "\u2581\u062c\u062f\u0648\u0644": 415,
  "\u0645\u0627": 416,
  "\u2581titre": 417,
  "\u2581Organisation": 418,
  "\u2581\u0623\u0643\u062b\u0631": 419,
  "\u2581cet": 420,
  "on": 421,
  "\u2581\u00ab": 422,
  "\u2581mon": 423,
  "\u2581dit": 424,
  "\u2581\u0648\u0636\u0639": 425,
  "\u2581point": 426,
  "\u258120": 427,
  "\u2581\u062d\u062a\u0649": 428,
  "\u2581\u0627\u0644\u0645\u0648\u0627\u0631\u062f": 429,
  "\u2581%": 430,
  "\u2581\u0645\u0627\u0630\u0627": 431,
  "\u2581\u0627\u0644\u0645\u0639\u0646\u064a\u0629": 432,
  "\u2581D": 433,
  "\u2581\u0627\u0644\u0649": 434,
  "\u2581\u062a\u0634\u0631\u064a\u0646": 435,
  "\u2581\u0627\u0644\u0641\u0631\u064a\u0642": 436,
  "\u2581t": 437,
  "\u258118": 438,
  "\u2581politique": 439,
  "\u2581personnel": 440,
  "\u2581application": 441,
  "\u2581\u0645\u062b\u0644": 442,
  "\u2581compris": 443,
  "\u2581\u0639\u062f\u0645": 444,
  "\u2581\u0627\u0644\u062f\u0648\u0631\u0629": 445,
  "\u2581te": 446,
  "\u2581\u0627\u0644\u0645\u0633\u0627\u0639\u062f\u0629": 447,
  "\u258114": 448,
  "\u2581efforts": 449,
  "\u2581\u0627\u0644\u062a\u0642\u0631\u064a\u0631": 450,
  "\u2581\u062a\u0643\u0648\u0646": 451,
  "\u2581mettre": 452,
  "\u2581prendre": 453,
  "\u2581article": 454,
  "\u2581\u0643": 455,
  "\u258111": 456,
  "\u2581\u064a\u062c\u0628": 457,
  "\u2581travaux": 458,
  "\u2581\u0627\u0644\u0627\u0642\u062a\u0635\u0627\u062f\u064a\u0629": 459,
  "\u2581\u0644\u064a\u0633": 460,
  "\u2581000": 461,
  "\u2581Un": 462,
  "\u2581sp\u00e9cial": 463,
  "\u2581encore": 464,
  "\u2581loi": 465,
  "\u2581\u0627\u0644\u0623\u0637\u0641\u0627\u0644": 466,
  "\u2581\u0627\u0644\u0630\u064a\u0646": 467,
  "\u0646\u064a": 468,
  "\u2581...": 469,
  "\u2581\u0648\u062a": 470,
  "\u2581plan": 471,
  "\u0639": 472,
  "\u2581\u0648\u064a": 473,
  "\u2581\u062d\u0633\u0646\u0627": 474,
  "\u258113": 475,
  "\u2581\u0627\u0644\u0645\u0639\u0646\u064a": 476,
  "\u2581Ce": 477,
  "\u2581d\u00e9cembre": 478,
  "\u2581va": 479,
  "\u2581armes": 480,
  "\u2581demande": 481,
  "\u2581\u0627\u0644\u0627\u062a\u0641\u0627\u0642\u064a\u0629": 482,
  "\u2581place": 483,
  "\u2581avoir": 484,
  "\u2581d\u00e9cision": 485,
  "\u2581processus": 486,
  "\u2581De": 487,
  "\u2581\u0636\u062f": 488,
  "\u2581\u0627\u0644\u0635\u0644\u0629": 489,
  "\u2581\u0644\u064a": 490,
  "\u2581\u0644\u0647\u0627": 491,
  "\u2581informations": 492,
  "\u2581devrait": 493,
  "\u2581\u0627\u0644\u0639\u0627\u0644\u0645\u064a": 494,
  "homme": 495,
  "\u2581\u0627\u0644\u0645\u0627\u0644\u064a\u0629": 496,
  "\u2581\u0627\u0644\u0648\u0642\u062a": 497,
  "\u2581sant\u00e9": 498,
  "\u2581\u0646\u062d\u0648": 499,
  "\u2581dispositions": 500,
  "\u2581\u062f\u0648\u0646": 501,
  "\u0642": 502,
  "\u2581\u0645\u0646\u0647\u0627": 503,
  "\u2581\u0627\u0644\u062d\u0643\u0648\u0645\u064a\u0629": 504,
  "\u258116": 505,
  "\u2581ans": 506,
  "\u2581\u0648\u0641\u0642\u0627": 507,
  "\u2581\u0644\u0646": 508,
  "\u2581\u0627": 509,
  "r": 510,
  "\u2581toute": 511,
  "\u2581monde": 512,
  "\u2581base": 513,
  "\u2581Pour": 514,
  "\u2581formation": 515,
  "\u2581\u0625\u062f\u0627\u0631\u0629": 516,
  "\u2581moins": 517,
  "\u2581\u0641\u0642\u0637": 518,
  "\u2581\u0627\u0644\u0623\u0633\u0627\u0633\u064a\u0629": 519,
  "\u0641": 520,
  "ait": 521,
  "ce": 522,
  "\u2581national": 523,
  "\u2581\u0639\u0644\u064a\u0647": 524,
  "\u2581\u0627\u0644\u0641\u062a\u0631\u0629": 525,
  "\u2581autre": 526,
  "\u2581\u0627\u0644\u0645\u062c\u062a\u0645\u0639": 527,
  "ant": 528,
  "\u2581apr\u00e8s": 529,
  "\u2581\u0631\u0626\u064a\u0633": 530,
  "\u2581\u0628\u0645\u0648\u062c\u0628": 531,
  "\u2581vie": 532,
  "\u2581internationales": 533,
  "\u2581\u062a\u0645": 534,
  "\u2581conform\u00e9ment": 535,
  "\u2581moi": 536,
  "\u2581temps": 537,
  "\u00eatre": 538,
  "\u258117": 539,
  "\u2581\u0633\u064a": 540,
  "\u2581\u0627\u0644\u0646\u0627\u0645\u064a\u0629": 541,
  "\u062f\u064a\u0633\u0645\u0628\u0631": 542,
  "\u2581\u0627\u0644\u0639\u0627\u0644\u0645\u064a\u0629": 543,
  "\u2581action": 544,
  "\u2581Bureau": 545,
  "\u2581\u0643\u0646\u062a": 546,
  "\u258119": 547,
  "\u2581donn\u00e9es": 548,
  "\u2581\u0648\u0625\u0630": 549,
  "\u2581\u0637\u0631\u064a\u0642": 550,
  "\u2581Mais": 551,
  "\u2581appui": 552,
  "\u2581\u0627\u0644\u062d\u0643\u0648\u0645\u0629": 553,
  "\u2581rapports": 554,
  "\u2581\u062a\u062d\u0642\u064a\u0642": 555,
  "]": 556,
  "\u0651\u0650": 557,
  "\u2581Au": 558,
  "\u2581Si": 559,
  "\u2581\u0648\u0639\u0644\u0649": 560,
  "\u2581sais": 561,
  "\u2581domaine": 562,
  "\u2581sera": 563,
  "\u2581\u0645\u0643\u062a\u0628": 564,
  "\u2581objectifs": 565,
  "\u2581\u0627\u0644\u0637\u0631\u0641": 566,
  "\u2581examen": 567,
  "\u2581\u0627\u0644\u0623\u0633\u0644\u062d\u0629": 568,
  "\u2581affaires": 569,
  "\u2581\u00e9gard": 570,
  "t": 571,
  "\u2581renforcer": 572,
  "\u2581avant": 573,
  "\u2581tr\u00e8s": 574,
  "\u2581\u0623\u0641\u0631\u064a\u0642\u064a\u0627": 575,
  "\u2581r\u00f4le": 576,
  "\u2581\u0644\u062f\u0649": 577,
  "\u2581\u0628\u0646\u0627\u0621": 578,
  "\u2581\u0627\u0644\u0646\u0638\u0631": 579,
  "\u2581recommandations": 580,
  "\u2581Programme": 581,
  "\u2581\u062d\u0627\u0644\u0629": 582,
  "\u2581visant": 583,
  "\u2581doivent": 584,
  "\u2581\u0627\u0644\u062f\u0639\u0645": 585,
  "\u2581\u062d\u064a\u062b": 586,
  "ci": 587,
  "\u2581\u0641\u064a\u0647": 588,
  "\u2581\u0627\u0644\u0628\u0631\u0646\u0627\u0645\u062c": 589,
  "\u2581\u0645\u0624\u062a\u0645\u0631": 590,
  "\u2581\u0648\u0627\u0644\u0645": 591,
  "\u258131": 592,
  "\u2581\u0643\u0630\u0644\u0643": 593,
  "\u2581\u0628\u0634\u0643\u0644": 594,
  "\u2581\u0627\u0644\u0623\u0645\u0631": 595,
  "\u2581\u0627\u0644\u0627\u0642\u062a\u0635\u0627\u062f\u064a": 596,
  "\u2581\u0644\u0643\u0646": 597,
  "\u2581\u0627\u0644\u0628\u0646\u062f": 598,
  "\u0633": 599,
  "\u2581ordre": 600,
  "\u2581fois": 601,
  "Assembl\u00e9e": 602,
  "\u2581\u062c\u0645\u0647\u0648\u0631\u064a\u0629": 603,
  "\u2581institutions": 604,
  "\u2581\u00e9taient": 605,
  "\u2581\u0645\u0646\u0630": 606,
  "\u2581p\u00e9riode": 607,
  "\u2581Une": 608,
  "\u2581\u0645\u0646\u0638\u0645\u0629": 609,
  "\u2581Non": 610,
  "\u2581projets": 611,
  "\u2581Des": 612,
  "\u2581ma": 613,
  "\u2581\u0639\u0645\u0644\u064a\u0627\u062a": 614,
  "\u2581organismes": 615,
  "\u2581\u0623\u0639\u0645\u0627\u0644": 616,
  "\u2581\u0632\u064a\u0627\u062f\u0629": 617,
  "\u2581\u0633\u062a": 618,
  "\u2581\u0646\u0638\u0627\u0645": 619,
  "\u2581\u0627\u0644\u0631\u0626\u064a\u0633": 620,
  "\u2581contr\u00f4le": 621,
  "\u2581\u0634\u064a\u0621": 622,
  "\u258121": 623,
  "\u2581s\u00e9ance": 624,
  "\u2581mondiale": 625,
  "\u2581\u0627\u0644\u0645\u0624\u0631\u062e": 626,
  "\u2581\u0627\u0644\u0625\u0642\u0644\u064a\u0645\u064a\u0629": 627,
  "E": 628,
  "\u2581notre": 629,
  "\u2581relatives": 630,
  "\u2581outre": 631,
  "\u2581op\u00e9rations": 632,
  "\u0632": 633,
  "\u2581\u0625\u0646\u0647": 634,
  "\u2581depuis": 635,
  "\u2581\u0648\u0644\u0643\u0646": 636,
  "\u2581tant": 637,
  "ment": 638,
  "\u2581Membres": 639,
  "\u2581\u0648\u0645": 640,
  "\u2581\u0639\u0646\u062f\u0645\u0627": 641,
  "\u2581fin": 642,
  "\u258125": 643,
  "\u2581\u0627\u0644\u0645\u0646\u0638\u0645\u0627\u062a": 644,
  "\u2581l\u00e0": 645,
  "\u2581lieu": 646,
  "\u2581note": 647,
  "\u2581\u0627\u0644\u0645\u062d\u0643\u0645\u0629": 648,
  "\u2581ici": 649,
  "\u2581\u0633\u064a\u0645\u0627": 650,
  "\u2581lutte": 651,
  "\u2581soient": 652,
  "\u2581\u0648\u0647\u064a": 653,
  "\u2581\u0642\u0631\u0627\u0631": 654,
  "\u2581\u0648\u0647\u0648": 655,
  "\u2581concerne": 656,
  "\u2581\u0627\u0644\u0627\u062a\u062d\u0627\u062f": 657,
  "\u2581assurer": 658,
  "elle": 659,
  "\u2581Ils": 660,
  "\u2581part": 661,
  "\u2581peuvent": 662,
  "\u2581nationale": 663,
  "\u2581pris": 664,
  "\u0627\u0621": 665,
  "\u258122": 666,
  "\u2581\u0627\u0644\u0625\u062f\u0627\u0631\u0629": 667,
  "\u2581social": 668,
  "\u2581\u0627\u0644\u0646\u0638\u0627\u0645": 669,
  "\u2581\u0627\u0644\u0646\u0648\u0648\u064a\u0629": 670,
  "\u2581\u0627\u0644\u0645\u0642\u0631\u0631": 671,
  "\u2581\u0627\u0644\u062e\u062f\u0645\u0627\u062a": 672,
  "\u2581veux": 673,
  "\u2581juin": 674,
  "\u2581\u0627\u0644\u0628\u0634\u0631\u064a\u0629": 675,
  "\u2581donc": 676,
  "\u2581\u062d\u0632\u064a\u0631\u0627\u0646": 677,
  "\u2581elles": 678,
  "\u2581\u0627\u0644\u0645\u0624\u062a\u0645\u0631": 679,
  "\u2581\u0627\u0644\u0631\u0626\u064a\u0633\u064a\u0629": 680,
  "autres": 681,
  "\u2581trois": 682,
  "\u2581\u0648\u0630\u0644\u0643": 683,
  "\u2581\u0627\u0644\u0639\u0627\u0645\u0644": 684,
  "\u2581groupes": 685,
  "\u2581\u0648\u0623": 686,
  "\u2581communaut\u00e9": 687,
  "\u2581r\u00e9union": 688,
  "nt": 689,
  "\u2581\u0627\u0644\u0639\u0627\u0644\u0645": 690,
  "\u2581r\u00e9gion": 691,
  "\u2581\u0627\u0644\u0648\u0637\u0646\u064a": 692,
  "\u2581\u0627\u0644\u062a\u062f\u0627\u0628\u064a\u0631": 693,
  "\u2581moyens": 694,
  "\u2581\u0628\u0627\u0644\u0646\u0633\u0628\u0629": 695,
  "\u2581\u0627\u0633\u062a\u062e\u062f\u0627\u0645": 696,
  "\u2581Oui": 697,
  "\u2581\u0627\u0644\u0623\u0646\u0634\u0637\u0629": 698,
  "\u2581::": 699,
  "\u2581durable": 700,
  "\u2581\u0644\u062d\u0642\u0648\u0642": 701,
  "\u2581avaient": 702,
  "\u2581probl\u00e8mes": 703,
  "\u064a\u0648\u0646\u064a\u0647": 704,
  "\u2581population": 705,
  "\u2581soci\u00e9t\u00e9": 706,
  "\u2581r\u00e9sultats": 707,
  "\u2581technique": 708,
  "\u0640\u0640\u0640": 709,
  "\u258123": 710,
  "\u2581mani\u00e8re": 711,
  "\u2581faut": 712,
  "\u2581montant": 713,
  "\u2581\u0627\u0644\u0645\u0646\u0638\u0645\u0629": 714,
  "\u2581\u0627\u0644\u0625\u0646\u0645\u0627\u0626\u064a\u0629": 715,
  "\u2581\u00c7a": 716,
  "\u2581Afrique": 717,
  "\u2581\u0644\u0643": 718,
  "\u2581B": 719,
  "\u2581\u0645\u0639\u0644\u0648\u0645\u0627\u062a": 720,
  "\u2581\u0623\u062d\u062f": 721,
  "\u2581secteur": 722,
  "\u2581mondial": 723,
  "\u2581discrimination": 724,
  "\u258124": 725,
  "\u2581budget": 726,
  "\u2581\u0623\u0639\u0636\u0627\u0621": 727,
  "\u2581dire": 728,
  "\u2581Parties": 729,
  "\u2581mis": 730,
  "\u2581violence": 731,
  "\u2581\u0646\u0639\u0645": 732,
  "\u2581\u0646\u0637\u0627\u0642": 733,
  "\u2581\u0622\u062e\u0631": 734,
  "\u2581\u0644\u0647": 735,
  "\u2581aide": 736,
  "\u2581document": 737,
  "\u2581\u0627\u0644\u0645\u0633\u0627\u0626\u0644": 738,
  "Organisation": 739,
  "\u2581maintien": 740,
  "\u2581\u0627\u0644\u0648\u0644\u0627\u064a\u0627\u062a": 741,
  "\u2581ceux": 742,
  "\u2581progr\u00e8s": 743,
  "\u2581justice": 744,
  "\u2581votre": 745,
  "\u062a\u0647": 746,
  "\u2581\u0625\u0644\u0627": 747,
  "\u2581eu": 748,
  "\u2581conditions": 749,
  "\u2581mandat": 750,
  "\u062a\u064a": 751,
  "\u2581\u0627\u0644\u0627\u062c\u062a\u0645\u0627\u0639\u064a\u0629": 752,
  "\u2581coordination": 753,
  "\u2581savoir": 754,
  "\u2581fonds": 755,
  "\u2581\u0625\u062c\u0631\u0627\u0621": 756,
  "\u2581\u0623\u0633\u0627\u0633": 757,
  "\u2581capacit\u00e9s": 758,
  "\u2581\u0627\u062a\u0641\u0627\u0642\u064a\u0629": 759,
  "\u2581besoin": 760,
  "\u2581information": 761,
  "\u2581\u0644\u0639\u0627\u0645": 762,
  "\u2581d\u00e9penses": 763,
  "\u2581certains": 764,
  "le": 765,
  "\u2581I": 766,
  "\u2581\u0625\u0646\u0634\u0627\u0621": 767,
  "ont": 768,
  "\u2581laquelle": 769,
  "\u2581\u0623\u0646\u0647\u0627": 770,
  "\u2581tenu": 771,
  "\u062a\u064a\u0646": 772,
  "\u2581\u0627\u0644\u0646\u0633\u0627\u0621": 773,
  "\u2581E": 774,
  "\u0644\u0627": 775,
  "\u2581pendant": 776,
  "z": 777,
  "\u062a\u0647\u0627": 778,
  "\u2581participation": 779,
  "\u2581\u062a\u062f\u0627\u0628\u064a\u0631": 780,
  "\u2581\u0627\u0644\u0623\u0645\u0627\u0646\u0629": 781,
  "\u2581\u0639": 782,
  "\u2581\u0627\u0644\u0645\u064a\u0632\u0627\u0646\u064a\u0629": 783,
  "\u2581\u0623\u0646\u0634\u0637\u0629": 784,
  "\u2581millions": 785,
  "\u2581\u0642\u0627\u0646\u0648\u0646": 786,
  "\u2581suite": 787,
  "\u2581nouveau": 788,
  "\u2581juillet": 789,
  "\u2581\u0627\u0644\u0633\u0644\u0627\u062d": 790,
  "\u2581\u0627\u0644\u062c\u0647\u0648\u062f": 791,
  "Unis": 792,
  "\u2581repr\u00e9sentants": 793,
  "\u2581\u0644\u0644\u0623\u0645\u0645": 794,
  "\u2581\u0627\u0644\u0645\u062d\u0644\u064a\u0629": 795,
  "\u2581besoins": 796,
  "\u2581n\u00e9cessaires": 797,
  "\u2581\u062a\u0645\u0648\u0632": 798,
  "\u2581mesure": 799,
  "\u2581serait": 800,
  "\u2581quoi": 801,
  "\u2581\u062a\u0642\u062f\u0645": 802,
  "\u2581toujours": 803,
  "):": 804,
  "\u2581\u062e\u0627\u0635\u0629": 805,
  "\u2581\u0648\u0642\u062a": 806,
  "\u2581\u0627\u0644\u0648\u0627\u0631\u062f\u0629": 807,
  "\u2581\u0648\u0645\u0627": 808,
  "\u2581\u0627\u0644\u0645\u0648\u0638\u0641\u064a\u0646": 809,
  "\u2581nucl\u00e9aires": 810,
  "\u062d": 811,
  "\u00e9tait": 812,
  "\u2581financement": 813,
  "\u258128": 814,
  "\u2581selon": 815,
  "\u2581toi": 816,
  "\u2581\u0645\u062c\u0645\u0648\u0639\u0629": 817,
  "ils": 818,
  "\u2581\u0639\u0646\u062f": 819,
  "\u2581lors": 820,
  "\u2581nom": 821,
  "\u2581\u062c\u0627\u0646\u0628": 822,
  "\u2581\u0628\u0635\u0648\u0631\u0629": 823,
  "\u2581domaines": 824,
  "\u064a\u0648\u0644\u064a\u0647": 825,
  "\u2581ensemble": 826,
  "\u2581ci": 827,
  "\u2581prises": 828,
  "\u2581\u0627\u0644\u062a\u0639\u0644\u064a\u0645": 829,
  "\u2581\u0627\u0644\u0642\u0627\u0626\u0645\u0629": 830,
  "\u2581renforcement": 831,
  "\u2581\u0644\u0644\u062c\u0646\u0629": 832,
  "\u2581premi\u00e8re": 833,
  "\u2581devraient": 834,
  "\u2581d\u00e9j\u00e0": 835,
  "\u2581assistance": 836,
  "\u2581\u0648\u064a\u0646\u0628\u063a\u064a": 837,
  "\u2581internationaux": 838,
  "\u2581pr\u00e9sent": 839,
  "\u2581promouvoir": 840,
  "\u2581\u0648\u062c\u0648\u062f": 841,
  "\u2581d\u00e9l\u00e9gation": 842,
  "\u2581Ces": 843,
  "\u2581fa\u00e7on": 844,
  "\u2581\u0648\u0627\u0644\u062a\u0646\u0645\u064a\u0629": 845,
  "\u2581\u0645\u0645\u0627": 846,
  "\u2581\u062e\u062f\u0645\u0627\u062a": 847,
  "as": 848,
  "\u2581\u062c\u062f\u0627": 849,
  "\u2581chaque": 850,
  "\u2581\u0633\u0648\u0641": 851,
  "\u2581plusieurs": 852,
  "\u2581groupe": 853,
  "\u2581\u062d\u0643\u0648\u0645\u0629": 854,
  "\u2581\u0627\u0644\u0639\u0646\u0641": 855,
  "\u2581peux": 856,
  "article": 857,
  "\u2581\u00e9conomiques": 858,
  "\u2581\u0627\u0644\u0623\u0634\u062e\u0627\u0635": 859,
  "\u2581\u0631\u0642\u0645": 860,
  "\u2581T": 861,
  "\u2581organes": 862,
  "\u258126": 863,
  "\u2581pourrait": 864,
  "\u2581ayant": 865,
  "\u258127": 866,
  "\u2581nationales": 867,
  "\u2581\u062f\u0639\u0645": 868,
  "\u2581ann\u00e9es": 869,
  "\u2581Fonds": 870,
  "\u2581\u062d\u0627\u0644\u0627\u062a": 871,
  "\u2581commerce": 872,
  "\u2581sujet": 873,
  "\u2581\u0627\u0644\u0645\u0631\u0641\u0642": 874,
  "\u2581\u0627\u062a\u062e\u0627\u0630": 875,
  "\u2581\u0627\u0644\u0628\u064a\u0627\u0646\u0627\u062a": 876,
  "\u2581inter": 877,
  "\u2581\u0644\u0623\u0646": 878,
  "\u2581promotion": 879,
  "\u2581Cette": 880,
  "\u2581voir": 881,
  "\u2581\u0641\u0642\u062f": 882,
  "\u2581\u0627\u0644\u062a\u0645\u064a\u064a\u0632": 883,
  "\u2581\u0627\u0644\u0642\u0627\u0646\u0648\u0646\u064a\u0629": 884,
  "\u2581pauvret\u00e9": 885,
  "\u2581\u0625\u0644\u064a\u0647\u0627": 886,
  "\u2581\u0627\u0644\u062c\u062f\u064a\u062f\u0629": 887,
  "\u2581pr\u00e9vention": 888,
  "\u2581cr\u00e9ation": 889,
  "\u2581\u0627\u0644\u0645\u0646\u0637\u0642\u0629": 890,
  "\u2581mieux": 891,
  "\u2581femme": 892,
  "\u25812005": 893,
  "\u2581\u0627\u0644\u0623\u0648\u0644\u0649": 894,
  "\u2581Qu": 895,
  "\u2581\u062a\u0648\u0641\u064a\u0631": 896,
  "\u2581\u0623\u0647\u0645\u064a\u0629": 897,
  "\u2581acc\u00e8s": 898,
  "\u2581\u0627\u0644\u0645\u0633\u062a\u062f\u0627\u0645\u0629": 899,
  "\u2581\u0627\u0644\u0625\u0646\u0645\u0627\u0626\u064a": 900,
  "\u2581\u0643\u064a\u0641": 901,
  "\u2581\u0627\u0644\u0645\u062a\u0635\u0644\u0629": 902,
  "\u2581possible": 903,
  "\u2581\u0627\u0644\u0635\u062f\u062f": 904,
  "vous": 905,
  "\u2581suivi": 906,
  "\u0636": 907,
  "\u2581\u0627\u0644\u0641\u0631\u0639\u064a\u0629": 908,
  "\u2581\u201c": 909,
  "\u2581\u0648\u0643\u0630\u0644\u0643": 910,
  "\u2581ONU": 911,
  "\u2581personne": 912,
  "\u2581\u0627\u0644\u0633\u0627\u0639\u0629": 913,
  "\u00e0": 914,
  "\u25812000": 915,
  "\u2581\u0645\u0644\u064a\u0648\u0646": 916,
  "\u2581novembre": 917,
  "\u2581P": 918,
  "\u2581septembre": 919,
  "\u2581d\u00e9sarmement": 920,
  "\u2581Par": 921,
  "\u2581\u0627\u0644\u0633\u064a\u0627\u0633\u0627\u062a": 922,
  "\u2581r\u00e9unions": 923,
  "\u2581\u062b\u0645": 924,
  "moi": 925,
  "\u258129": 926,
  "\u2581\u0627\u0644\u0628\u0639\u062b\u0629": 927,
  "\u2581exercice": 928,
  "\u2581nouvelles": 929,
  "\u2581\u0623\u064a\u0644\u0648\u0644": 930,
  "\u2581D\u00e9claration": 931,
  "\u2581adopt\u00e9": 932,
  "\u2581\u0634\u062e\u0635": 933,
  "\u2581\u0641\u0631\u064a\u0642": 934,
  "\u2581peu": 935,
  "\u2581produits": 936,
  "\u2581\u0627\u0644\u064a\u0648\u0645": 937,
  "\u2581rien": 938,
  "\u2581\u062a\u0642\u0648\u0645": 939,
  "\u2581famille": 940,
  "\u00e9": 941,
  "\u2581\u0627\u0644\u0644\u0627\u0632\u0645\u0629": 942,
  "\u064a\u0627": 943,
  "\u2581police": 944,
  "\u00c9tat": 945,
  "\u2581octobre": 946,
  "\u2581juste": 947,
  "\u2581\u0628\u0644\u062f\u0627\u0646": 948,
  "\u2581autorit\u00e9s": 949,
  "\u2581d\u00e9cisions": 950,
  "\u2581\u0623\u062b\u0646\u0627\u0621": 951,
  "\u2581\u0627\u0644\u0625\u062c\u0631\u0627\u0621\u0627\u062a": 952,
  "\u2581am\u00e9liorer": 953,
  "\u2581gouvernements": 954,
  "\u2581victimes": 955,
  "\u2581\u0627\u0644\u062d\u0635\u0648\u0644": 956,
  "Add": 957,
  "\u2581\u0627\u0644\u0645\u062a\u0639\u0644\u0642": 958,
  "\u2581\u0625\u0639\u0627\u062f\u0629": 959,
  "\u2581\u0627\u0644\u062c\u0644\u0633\u0629": 960,
  "\u2581\u064a\u0644\u064a": 961,
  "\u0633\u0628\u062a\u0645\u0628\u0631": 962,
  "\u0646\u0648\u0641\u0645\u0628\u0631": 963,
  "\u2581mois": 964,
  "\u2581principes": 965,
  "\u2581\u0627\u0644\u0633\u064a\u0627\u0633\u064a\u0629": 966,
  "\u2581\u0641\u062a\u0631\u0629": 967,
  "\u2581repr\u00e9sentant": 968,
  "\u0645\u0627\u0631\u0633": 969,
  "\u2581\u0644\u0648": 970,
  "\u2581pr\u00e9sente": 971,
  "\u2581\u0627\u0644\u0628\u0644\u062f": 972,
  "\u2581\u0627\u0644\u062f\u064a\u0645\u0642\u0631\u0627\u0637\u064a\u0629": 973,
  "\u2581\u0645\u0646\u0637\u0642\u0629": 974,
  "\u2581\u0627\u0644\u0645\u0648\u0627\u062f": 975,
  "\u2581hommes": 976,
  "\u2581date": 977,
  "\u2581chose": 978,
  "\u2581\u0627\u0644\u062b\u0627\u0646\u064a\u0629": 979,
  "\u2581\u0627\u0644\u0645\u0633\u062a\u0648\u0649": 980,
  "\u2581raison": 981,
  "\u2581postes": 982,
  "\u2581\u0627\u0644\u0633\u0643\u0627\u0646": 983,
  "aient": 984,
  "\u2581\u062c\u062f\u064a\u062f\u0629": 985,
  "\u2581\u0627\u0644\u062d\u0642": 986,
  "\u2581\u00bb": 987,
  "\u2581\u0623\u0641\u0636\u0644": 988,
  "\u2581h": 989,
  "\u064d": 990,
  "\u2581as": 991,
  "\u2581premier": 992,
  "\u2581\u00e9tat": 993,
  "\u2581pratiques": 994,
  "\u2581\u0627\u0644\u0625\u0646\u0633\u0627\u0646\u064a\u0629": 995,
  "\u2581effet": 996,
  "\u2581\u062f\u0648\u0631\u062a\u0647\u0627": 997,
  "\u25812002": 998,
  "\u2581\u0627\u0644\u062a\u062c\u0627\u0631\u0629": 999,
  "\u2581jamais": 1000,
  "\u2581vais": 1001,
  "\u2581demand\u00e9": 1002,
  "\u2581\u062a\u062d\u0633\u064a\u0646": 1003,
  "\u2581\u0628\u0631\u0627\u0645\u062c": 1004,
  "\u2581probl\u00e8me": 1005,
  "\u2581exemple": 1006,
  "\u25812004": 1007,
  "\u2581\u0627\u0644\u0645\u0646\u0627\u0637\u0642": 1008,
  "\u2581environnement": 1009,
  "\u2581civile": 1010,
  "\u2581\u0628\u0633\u0628\u0628": 1011,
  "\u2581moyen": 1012,
  "\u2581\u0628\u0644": 1013,
  "\u25812006": 1014,
  "\u2581terme": 1015,
  "\u2581..": 1016,
  "\u2581\u0627\u0644\u0641\u0642\u0631": 1017,
  "\u0643\u0645": 1018,
  "\u0623\u0643\u062a\u0648\u0628\u0631": 1019,
  "\u2581mars": 1020,
  "\u2581\u0627\u0644\u0645\u0634\u062a\u0631\u0643\u0629": 1021,
  "\u2581\u0645\u0643\u0627\u0641\u062d\u0629": 1022,
  ");": 1023,
  "\u2581gouvernementale": 1024,
  "\u2581\u0627\u0644\u062a\u0627\u0644\u064a\u0629": 1025,
  "\u2581\u062d\u0641\u0638": 1026,
  "\u2581\u0645\u0633\u0623\u0644\u0629": 1027,
  "\u2581\u00e9valuation": 1028,
  "\u2581\u0627\u0644\u062d\u0627\u0644\u0629": 1029,
  "\u2581terrorisme": 1030,
  "\u2581\u0648\u0627\u062d\u062f": 1031,
  "\u2581\u0622\u0630\u0627\u0631": 1032,
  "\u2581faveur": 1033,
  "\u2581Mission": 1034,
  "\u2581donner": 1035,
  "\u2581\u0627\u0644\u0623\u0647\u062f\u0627\u0641": 1036,
  "\u2581consultatif": 1037,
  "\u2581\u062a\u062d\u062f\u064a\u062f": 1038,
  "\u2581secr\u00e9tariat": 1039,
  "\u2581\u0627\u0644\u0627\u062c\u062a\u0645\u0627\u0639": 1040,
  "\u2581\u0648\u0645\u0639": 1041,
  "\u2581\u0627\u0644\u062a\u0627\u0628\u0639\u0629": 1042,
  "\u2581d\u00e9claration": 1043,
  "\u25812003": 1044,
  "\u2581\u0639\u0642\u062f": 1045,
  "\u2581mai": 1046,
  "\u2581\u0627\u0644\u0645\u0643\u062a\u0628": 1047,
  "\u2581\u0627\u0644\u0634\u0631\u0637\u0629": 1048,
  "\u2581seront": 1049,
  "\u2581Rapport": 1050,
  "\u2581normes": 1051,
  "\u2581taux": 1052,
  "\u25812001": 1053,
  "\u2581\u064a\u0648\u0645": 1054,
  "\u2581Secr\u00e9tariat": 1055,
  "\u2581territoire": 1056,
  "\u2581\u0627\u0644\u0637\u0641\u0644": 1057,
  "\u2581aupr\u00e8s": 1058,
  "\u2581\u062d\u062f": 1059,
  "\u2581\u0645\u0633\u062a\u0648\u0649": 1060,
  "\u2581\u0627\u0644\u0645\u0642\u062f\u0645\u0629": 1061,
  "\u2581\u0627\u0644\u0633\u0627\u0628\u0642\u0629": 1062,
  "\u2581contributions": 1063,
  "\u2581n\u00e9cessaire": 1064,
  "\u2581fins": 1065,
  "\u2581heures": 1066,
  "\u2581Sud": 1067,
  "\u2581\u00e9ducation": 1068,
  "\u2581\u0625": 1069,
  "\u2581nationaux": 1070,
  "\u2581\u0628\u0630\u0644\u0643": 1071,
  "\u2581aider": 1072,
  "\u2581alors": 1073,
  "\u2581donn\u00e9": 1074,
  "\u2581\u062e\u0637\u0629": 1075,
  "\u2581\u0627\u0644\u0631\u0633\u0645\u064a\u0629": 1076,
  "\u2581D\u00e9partement": 1077,
  "\u2581;": 1078,
  "\u2581\u062c\u062f\u064a\u062f": 1079,
  "\u2581respect": 1080,
  "\u2581important": 1081,
  "\u2581\u0646\u062d\u0646": 1082,
  "\u2581\u0623\u064a\u0627\u0631": 1083,
  "\u2581\u0627\u0644\u0639\u0645\u0644\u064a\u0629": 1084,
  "\u2581ton": 1085,
  "\u2581jusqu": 1086,
  "\u2581proc\u00e9dures": 1087,
  "\u2581r\u00e9solutions": 1088,
  "\u2581grande": 1089,
  "\u2581ann\u00e9e": 1090,
  "\u2581\u0627\u0644\u0625\u0631\u0647\u0627\u0628": 1091,
  "\u2581celui": 1092,
  "\u2581\u0627\u0644\u0628\u0631\u0627\u0645\u062c": 1093,
  "\u2581organisation": 1094,
  "\u2581quand": 1095,
  "\u2581\u0648\u0628": 1096,
  "\u2581\u062d\u0648\u0644": 1097,
  "\u2581r\u00e9fugi\u00e9s": 1098,
  "\u2581m\u00e9canismes": 1099,
  "\u2581bon": 1100,
  "\u2581sociale": 1101,
  "\u2581relative": 1102,
  "\u2581\u062f\u0627\u062e\u0644": 1103,
  "\u2581\u062a\u062d\u062a": 1104,
  "\u2581proc\u00e9dure": 1105,
  "\u2581techniques": 1106,
  "\u2581\u0643\u0628\u064a\u0631": 1107,
  "\u062a\u0643": 1108,
  "\u2581\u064a\u062a\u0645": 1109,
  "\u2581sp\u00e9ciale": 1110,
  "\u2581\u00e9tant": 1111,
  "\u258150": 1112,
  "\u2581\u0633\u0646\u0629": 1113,
  "\u2581\u0646\u064a\u0633\u0627\u0646": 1114,
  "\u2581avril": 1115,
  "\u2581n\u00e9cessit\u00e9": 1116,
  "CN": 1117,
  "voir": 1118,
  "\u2581\u062d\u0645\u0627\u064a\u0629": 1119,
  "\u2581\u0627\u0644\u0648\u062b\u064a\u0642\u0629": 1120,
  "\u2581maintenant": 1121,
  "d": 1122,
  "\u2581\u0648\u0627\u0644\u0627\u062c\u062a\u0645\u0627\u0639\u064a\u0629": 1123,
  "\u2581\u0627\u0644\u062d\u0643\u0648\u0645\u0627\u062a": 1124,
  "\u2581europ\u00e9enne": 1125,
  "\u0647\u0645\u0627": 1126,
  "\u2581documents": 1127,
  "\u2581Bien": 1128,
  ".1": 1129,
  "\u2581quelque": 1130,
  "tu": 1131,
  "\u2581Protocole": 1132,
  "\u2581Cour": 1133,
  "\u2581\u0627\u0644\u0623\u0648\u0631\u0648\u0628\u064a": 1134,
  "\u2581nos": 1135,
  "\u25812007": 1136,
  "\u2581humanitaire": 1137,
  "\u2581charg\u00e9": 1138,
  "\u2581experts": 1139,
  "\u2581\u0625\u062c\u0631\u0627\u0621\u0627\u062a": 1140,
  "\u2581recherche": 1141,
  "\u2581\u0627\u0644\u0635\u062d\u0629": 1142,
  "\u2581\u0627\u0644\u0645\u0634\u0631\u0648\u0639": 1143,
  "\u2581F": 1144,
  "\u2581annexe": 1145,
  "\u2581responsabilit\u00e9": 1146,
  "\u25812008": 1147,
  "\u2581janvier": 1148,
  "\u2581\u0637\u0644\u0628": 1149,
  "\u2581II": 1150,
  "\u0645\u0627\u064a\u0648": 1151,
  "\u2581\u062f\u0648\u0644\u0629": 1152,
  "\u2581fournir": 1153,
  "\u2581Comme": 1154,
  "\u2581pr\u00e9sent\u00e9": 1155,
  "\u2581public": 1156,
  "\u2581missions": 1157,
  "\u2581nouvelle": 1158,
  "\u2581\u0623\u0644\u0641": 1159,
  "\u2581\u0648\u0627\u0644\u0645\u0646\u0638\u0645\u0627\u062a": 1160,
  "\u2581es": 1161,
  "\u2581\u0627\u0633\u062a\u0639\u0631\u0627\u0636": 1162,
  "\u2581\u0644\u0644\u0645": 1163,
  "\u0627\u0646\u0638\u0631": 1164,
  "action": 1165,
  "\u2581devant": 1166,
  "\u2581\u062e\u0627\u0635": 1167,
  "\u2581vertu": 1168,
  "\u2581avez": 1169,
  "\u2581zones": 1170,
  "ordre": 1171,
  "\u2581d\u00e9cid\u00e9": 1172,
  "\u2581\u201d": 1173,
  "\u2581\u0627\u0644\u0645\u0624\u0633\u0633\u0627\u062a": 1174,
  "\u2581\u0642": 1175,
  "\u2581nouveaux": 1176,
  "\u2581\u062d\u0642": 1177,
  "\u064a\u0646\u0627\u064a\u0631": 1178,
  "\u2581\u0646\u0632\u0639": 1179,
  "\u2581certaines": 1180,
  "\u2581\u0633\u0628\u064a\u0644": 1181,
  "\u2581qualit\u00e9": 1182,
  "\u2581pouvoir": 1183,
  "\u2581\u0627\u0644\u062a\u0642\u0627\u0631\u064a\u0631": 1184,
  "\u2581\u0627\u0644\u0625\u0642\u0644\u064a\u0645\u064a": 1185,
  "\u0623\u0628\u0631\u064a\u0644": 1186,
  "\u2581\u0627\u0644\u0635\u0646\u062f\u0648\u0642": 1187,
  "\u2581\u0627\u0644\u0645\u0633\u0627\u0648\u0627\u0629": 1188,
  "\u2581\u0623\u0642\u0644": 1189,
  "\u2581\u0633\u0646\u0648\u0627\u062a": 1190,
  "\u2581\u00e9galit\u00e9": 1191,
  "\u2581\u0627\u0644\u0635\u0639\u064a\u062f": 1192,
  "\u2581texte": 1193,
  "\u2581\u0627\u0646\u0627": 1194,
  "\u2581ni": 1195,
  "\u2581\u0633\u0646": 1196,
  "\u2581administration": 1197,
  "\u2581actes": 1198,
  "\u2581\u0648\u0627\u0644\u062a\u064a": 1199,
  "\u2581deuxi\u00e8me": 1200,
  "\u2581Pourquoi": 1201,
  "\u2581avons": 1202,
  "\u2581\u0627\u0644\u0642\u062f\u0631\u0627\u062a": 1203,
  "\u2581\u0627\u0644\u0627\u0633\u062a\u0634\u0627\u0631\u064a\u0629": 1204,
  "\u2581\u0625\u0632\u0627\u0621": 1205,
  "\u2581celles": 1206,
  "\u2581beaucoup": 1207,
  "application": 1208,
  "\u2581relatifs": 1209,
  "\u2581\u00e9l\u00e9ments": 1210,
  "\u2581Mme": 1211,
  "\u2581grand": 1212,
  "\u2581\u0645\u0646\u0639": 1213,
  "\u2581celle": 1214,
  "\u2581\u0648\u0627\u062d\u062f\u0629": 1215,
  "apr\u00e8s": 1216,
  "\u2581\u0623\u0645\u0627\u0645": 1217,
  "\u0641\u064a": 1218,
  "\u2581\u0627\u0644\u062a": 1219,
  "\u2581service": 1220,
  "\u2581\u0625\u0644\u064a\u0647": 1221,
  "\u2581\u0648\u0644\u0645": 1222,
  "\u2581r\u00e8glement": 1223,
  "\u2581\u0627\u0644\u062c\u0646\u0627\u0626\u064a\u0629": 1224,
  "\u2581\u0643\u0628\u064a\u0631\u0629": 1225,
  "\u2581\u0623\u0643\u0628\u0631": 1226,
  "\u2581\u0627\u0644\u0642\u064a\u0627\u0645": 1227,
  "\u2581conflits": 1228,
  "\u2581\u0625\u0639\u062f\u0627\u062f": 1229,
  "\u2581\u0644\u0645\u0643\u0627\u0641\u062d\u0629": 1230,
  "\u2581\u0627\u0644\u062e\u0628\u0631\u0627\u0621": 1231,
  "\u2581\u0645\u0631\u0629": 1232,
  "\u2581\u0627\u0644\u0635\u063a\u064a\u0631\u0629": 1233,
  "\u2581\u0645\u0631\u0643\u0632": 1234,
  "\u2581\u0627\u0644\u062a\u0642\u062f\u0645": 1235,
  "\u2581autochtones": 1236,
  "\u2581\u0644\u0630\u0644\u0643": 1237,
  "\u2581\u0633": 1238,
  "\u2581\u0644\u0647\u0630\u0627": 1239,
  "\u2581cela": 1240,
  "\u2581\u0627\u0644\u0633\u0646\u062a\u064a\u0646": 1241,
  "\u2581\u0641\u0636\u0644\u0627": 1242,
  "\u2581\u0627\u0644\u0639\u0631\u0628\u064a\u0629": 1243,
  "\u2581\u0627\u0644\u0645\u0634\u0627\u0631\u0643\u0629": 1244,
  "\u2581\u0627\u0644\u0645\u0634\u0627\u0631\u064a\u0639": 1245,
  "\u2581syst\u00e8mes": 1246,
  "\u2581\u062d\u0633\u0628": 1247,
  "\u2581Minist\u00e8re": 1248,
  "\u2581r\u00e9alisation": 1249,
  "\u2581seulement": 1250,
  "\u2581examiner": 1251,
  "\u0637": 1252,
  "\u2581\u0645\u062e\u062a\u0644\u0641": 1253,
  "\u2581\u0628\u063a\u064a\u0629": 1254,
  "\u2581Haut": 1255,
  "\u2581haut": 1256,
  "\u2581\u0661": 1257,
  "\u2581moment": 1258,
  "\u2581prise": 1259,
  "\u2581\u0622\u0628": 1260,
  "\u2581soutien": 1261,
  "\u2581accord": 1262,
  "\u2581forces": 1263,
  "\u2581\u0627\u0644\u0645\u062f\u0646\u064a": 1264,
  "\u2581\u0627\u0644\u0642\u0636\u0627\u0621": 1265,
  "\u2581Tout": 1266,
  "\u2581financi\u00e8res": 1267,
  "\u2581\u0646\u0642\u0635": 1268,
  "\u2581\u062d\u0627\u0644\u064a\u0627": 1269,
  "\u2581permettre": 1270,
  "\u2581obligations": 1271,
  "o": 1272,
  "\u2581entreprises": 1273,
  "\u2581\u0627\u0639\u062a\u0645\u0627\u062f": 1274,
  "\u2581r\u00e9gional": 1275,
  "\u2581\u0627\u0644\u062b\u0627\u0644\u062b\u0629": 1276,
  "\u2581\u0641\u0649": 1277,
  "\u2581conflit": 1278,
  "\u2581vers": 1279,
  "\u2581\u0627\u0644\u062a\u0646\u0641\u064a\u0630": 1280,
  "\u2581\u0644\u0647\u0630\u0647": 1281,
  "\u2581\u0623\u0644\u0627": 1282,
  "\u2581continuer": 1283,
  "\u2581tenue": 1284,
  "\u2581\u0639\u0644\u0645\u0627": 1285,
  "\u2581juridique": 1286,
  "\u2581\u0645\u0648\u0627\u0635\u0644\u0629": 1287,
  "\u2581mission": 1288,
  "\u2581sexes": 1289,
  "\u2581\u0627\u0644\u0623\u0635\u0644\u064a\u0629": 1290,
  "\u2581conf\u00e9rence": 1291,
  "\u2581\u0648\u0643\u0627\u0646": 1292,
  "\u2581\u0645\u0645\u062b\u0644": 1293,
  "\u2581communication": 1294,
  "\u2581\u0627\u0644\u0627\u062d\u062a\u064a\u0627\u062c\u0627\u062a": 1295,
  "\u2581gouvernement": 1296,
  "\u2581\u0648\u0627\u0644\u0627\u062c\u062a\u0645\u0627\u0639\u064a": 1297,
  "\u2581car": 1298,
  "\u2581sommes": 1299,
  "\u2581importance": 1300,
  "\u2581type": 1301,
  "\u2581r\u00e9gionales": 1302,
  "\u2581niveaux": 1303,
  "\u2581indiqu\u00e9": 1304,
  "\u2581\u0644\u0645\u0627": 1305,
  "\u2581\u0627\u0644\u0628\u0644\u0627\u063a": 1306,
  "ons": 1307,
  "\u2581sein": 1308,
  "\u2581fonctionnaires": 1309,
  "\u2581\u0627\u0644\u0635\u062d\u064a\u0629": 1310,
  "\u2581\u0644\u0641\u062a\u0631\u0629": 1311,
  "\u2581\u0648\u0647\u0630\u0627": 1312,
  "\u2581\u062a\u0642\u064a\u064a\u0645": 1313,
  ")\u061b": 1314,
  "\u2581\u0625\u0646\u0647\u0627": 1315,
  "\u2581\u0627\u0644\u0646\u062d\u0648": 1316,
  "\u2581\u0645\u0646\u0638\u0648\u0645\u0629": 1317,
  "\u2581\u0646\u062a\u0627\u0626\u062c": 1318,
  "\u2581\u062f\u0648\u0631": 1319,
  "\u2581\u0644\u0645\u0627\u0630\u0627": 1320,
  "\u2581peuples": 1321,
  "\u2581consultations": 1322,
  "\u2581d\u00e9mocratique": 1323,
  "\u2581tenir": 1324,
  "\u2581l\u00e9gislation": 1325,
  "\u2581Rapporteur": 1326,
  "\u2581principe": 1327,
  "\u2581\u0627\u0644\u0645\u0639\u0642\u0648\u062f\u0629": 1328,
  "\u2581relatif": 1329,
  "\u258140": 1330,
  "\u2581\u0644\u0643\u064a": 1331,
  "\u062b": 1332,
  "\u2581tels": 1333,
  "\u2581\u0627\u0644\u0631\u0627\u0645\u064a\u0629": 1334,
  "\u2581\u0625\u0630": 1335,
  "\u2581publique": 1336,
  "\u2581\u0627\u0644\u0644\u0627\u062c\u0626\u064a\u0646": 1337,
  "\u2581\u0633\u0623": 1338,
  "\u2581\u0631\u0628\u0645\u0627": 1339,
  "\u2581\u0644\u0643\u0644": 1340,
  "\u2581aucune": 1341,
  "\u2581production": 1342,
  "\u2581instruments": 1343,
  "\u2581\u0648\u0627\u0644\u0623\u0645\u0646": 1344,
  "\u2581\u0639\u0628\u0631": 1345,
  "\u2581\u0636\u0631\u0648\u0631\u0629": 1346,
  "\u2581\u0627\u0644\u062d\u0642\u0648\u0642": 1347,
  "\u2581cr\u00e9er": 1348,
  "\u2581jeunes": 1349,
  "\u2581reste": 1350,
  "\u2581face": 1351,
  "\u2581\u0642\u0627\u0644": 1352,
  "\u2581\u0640": 1353,
  "\u2581\u0646\u0641\u0633\u0647": 1354,
  "\u2581vu": 1355,
  "\u2581\u0648\u0644": 1356,
  "\u2581ao\u00fbt": 1357,
  "\u0630": 1358,
  "\u2581\u0648\u062a\u0639\u0632\u064a\u0632": 1359,
  "\u2581\u0627\u0644\u062a\u0646\u0641\u064a\u0630\u064a": 1360,
  "\u2581enfant": 1361,
  "\u2581100": 1362,
  "\u2581bonne": 1363,
  "\u2581\u062d\u064a\u0646": 1364,
  "\u2581formes": 1365,
  "\u2581attention": 1366,
  "\u2581liste": 1367,
  "\u2581\u0627\u0644\u062c\u0631\u064a\u0645\u0629": 1368,
  "\u2581initiatives": 1369,
  "\u2581r\u00e8gles": 1370,
  "\u2581\u0639\u0644\u064a": 1371,
  "\u2581\u0644\u062a": 1372,
  "\u2581strat\u00e9gie": 1373,
  "\u2581\u062a\u0646\u0638\u064a\u0645": 1374,
  "\u2581nombreux": 1375,
  "\u2581f\u00e9vrier": 1376,
  "\u2581emploi": 1377,
  "\u2581oeuvre": 1378,
  "\u2581fonctions": 1379,
  "\u2581\u0627\u062a\u0641\u0627\u0642": 1380,
  "\u2581\u0627\u0644\u062d\u0627\u0644\u0627\u062a": 1381,
  "\u2581rendre": 1382,
  "\u2581\u0627\u0644\u062f\u0627\u062e\u0644\u064a\u0629": 1383,
  "B": 1384,
  "\u2581\u0623\u062d\u0643\u0627\u0645": 1385,
  "\u2581\u0623\u0645\u0631": 1386,
  "\u2581\u0627\u0644\u0628\u064a\u0626\u0629": 1387,
  "information": 1388,
  "\u2581PNUD": 1389,
  "\u2581biens": 1390,
  "\u2581\u0627\u0644\u0633\u0644\u0637\u0627\u062a": 1391,
  "\u2581\u0627\u0646\u0647": 1392,
  "\u2581\u0634\u0628\u0627\u0637": 1393,
  "\u2581\u0628\u0647\u0630\u0627": 1394,
  "\u2581\u0648\u063a\u064a\u0631\u0647\u0627": 1395,
  "\u2581libert\u00e9": 1396,
  "\u2581\u064a\u0628\u062f\u0648": 1397,
  "\u2581ta": 1398,
  "\u2581\u0628\u0639\u062b\u0629": 1399,
  "\u2581recours": 1400,
  "\u2581faciliter": 1401,
  "\u2581certain": 1402,
  "\u2581\u0642\u0627\u0626\u0645\u0629": 1403,
  "\u2581ai": 1404,
  "\u064a\u0627\u062a": 1405,
  "au": 1406,
  "\u2581sociaux": 1407,
  "\u2581quatre": 1408,
  "\u2581Pacte": 1409,
  "ONU": 1410,
  "\u2581utilisation": 1411,
  "\u2581\u0648\u064a\u0645\u0643\u0646": 1412,
  "\u25812009": 1413,
  "\u2581\u0627\u0644\u062a\u062f\u0631\u064a\u0628": 1414,
  "particuli\u00e8rement": 1415,
  "\u0635": 1416,
  "\u2581font": 1417,
  "\u2581actuellement": 1418,
  "\u2581\u0627\u0644\u0645\u0628\u0627\u062f\u0626": 1419,
  "\u2581\u0623\u0634\u0643\u0627\u0644": 1420,
  "\u2581\u0627\u0646\u062a": 1421,
  "\u0623\u063a\u0633\u0637\u0633": 1422,
  "\u2581total": 1423,
  "\u2581\u2022": 1424,
  "\u0641\u0628\u0631\u0627\u064a\u0631": 1425,
  "\u2581eux": 1426,
  "\u2581\u0636\u0645\u0627\u0646": 1427,
  "\u2581\u0644\u062a\u0639\u0632\u064a\u0632": 1428,
  "\u2581filles": 1429,
  "\u2581\u0628\u062d\u0642\u0648\u0642": 1430,
  "\u2581\u0627\u0644\u0642\u0636\u0627\u064a\u0627": 1431,
  "\u062f\u0629": 1432,
  "\u2581Pas": 1433,
  "\u2581renseignements": 1434,
  "\u2581pu": 1435,
  "\u2581f": 1436,
  "\u2581relations": 1437,
  "\u2581r\u00e9duction": 1438,
  "\u2581Repr\u00e9sentant": 1439,
  "\u2581vraiment": 1440,
  "\u2581pleinement": 1441,
  "\u25812.": 1442,
  "\u2581gr\u00e2ce": 1443,
  "\u2581traitement": 1444,
  "\u2581\u0635\u0627\u062d\u0628": 1445,
  "\u2581d\u00e9l\u00e9gations": 1446,
  "\u2581DE": 1447,
  "\u2581\u0627\u0644\u0625\u062f\u0627\u0631\u064a\u0629": 1448,
  "\u2581\u0627\u062c\u062a\u0645\u0627\u0639": 1449,
  "\u2581\u0646\u0647\u0627\u064a\u0629": 1450,
  "\u2581Comment": 1451,
  "\u2581pratique": 1452,
  "().": 1453,
  "\u2581\u0627\u0644\u0642\u0637\u0627\u0639": 1454,
  "l": 1455,
  "\u2581\u0623\u0639\u0644\u0627\u0647": 1456,
  "\u2581\u0627\u0644\u062c\u0646\u0633\u064a\u0646": 1457,
  "\u2581\u0639\u062f\u0629": 1458,
  "\u25811999": 1459,
  "\u2581\u00eates": 1460,
  "\u2581objectif": 1461,
  "\u2581Alors": 1462,
  "\u2581ex\u00e9cution": 1463,
  "\u064c": 1464,
  "\u2581\u0639\u0634\u0631": 1465,
  "\u2581jours": 1466,
  "\u2581provisoire": 1467,
  "\u2581\u062c\u0646\u0648\u0628": 1468,
  "\u0627\u0645": 1469,
  "\u2581\u0627\u0644\u0627\u062c\u062a\u0645\u0627\u0639\u0627\u062a": 1470,
  "\u2581violations": 1471,
  "\u2581\u0639\u0627\u0645\u0629": 1472,
  "\u2581\u0627\u0644\u0645\u062f\u0646\u064a\u0629": 1473,
  "P": 1474,
  "\u2581pr\u00e9senter": 1475,
  "\u0631\u0629": 1476,
  "\u2581r\u00e9gionaux": 1477,
  "\u2581\u0627\u0644\u062a\u0642\u0646\u064a\u0629": 1478,
  "\u25811.": 1479,
  "\u2581\u0645\u0634\u0627\u0631\u064a\u0639": 1480,
  "\u2581r\u00e9gions": 1481,
  "\u2581d\u00e9bat": 1482,
  "\u2581\u0627\u0644\u0646": 1483,
  "\u2581\u0627\u0644\u0634\u0627\u0645\u0644": 1484,
  "\u2581\u0644\u064a\u0633\u062a": 1485,
  "\u2581\u062a\u062a\u0639\u0644\u0642": 1486,
  "\u2581\u0627\u0644\u0645\u0633\u0623\u0644\u0629": 1487,
  "\u2581telles": 1488,
  "\u2581\u0633\u064a\u0627\u0642": 1489,
  "\u2581\u0627\u0644\u0639\u0631\u0627\u0642": 1490,
  "\u2581effets": 1491,
  "\u2581mort": 1492,
  "\u2581\u0627\u0644\u0623\u0645\u0631\u064a\u0643\u064a\u0629": 1493,
  "\u2581\u062a\u0642\u0627\u0631\u064a\u0631": 1494,
  "\u2581biennal": 1495,
  "\u2581cinq": 1496,
  "\u2581\u064a\u062c\u0631\u064a": 1497,
  "\u2581\u064a\u0642\u062f\u0645": 1498,
  "\u2581\u062a\u0634\u0645\u0644": 1499,
  "\u2581\u0639\u0644\u064a\u0643": 1500,
  "\u2581\u0625\u0639\u0644\u0627\u0646": 1501,
  "\u2581p\u00e9nale": 1502,
  "\u2581\u0645\u062d\u062f\u062f\u0629": 1503,
  "\u2581\u0639\u0646\u0647\u0627": 1504,
  "\u2581accords": 1505,
  "\".": 1506,
  "\u2581\u0627\u0644\u062d\u064a\u0627\u0629": 1507,
  "\u2581peuple": 1508,
  "\u2581dialogue": 1509,
  "\u2581\u0628\u0645": 1510,
  "\u2581\u0627\u0644\u0634\u0624\u0648\u0646": 1511,
  "\u2581\u0644\u0644\u0641\u062a\u0631\u0629": 1512,
  "\u2581e": 1513,
  "\u2581r\u00e9duire": 1514,
  "\u2581\u062d\u0642\u0627": 1515,
  "\u2581\u064a\u0643\u0646": 1516,
  "\u0634": 1517,
  "\u2581Que": 1518,
  "\u2581examin\u00e9": 1519,
  "\u2581\u0645\u062c\u0627\u0644\u0627\u062a": 1520,
  "\u0623\u0648": 1521,
  "\u2581Union": 1522,
  "\u2581\u0628\u0627\u0621": 1523,
  "\u2581Tribunal": 1524,
  "\u2581militaires": 1525,
  "\u2581ailleurs": 1526,
  "\u2581\u0625\u0645\u0643\u0627\u0646\u064a\u0629": 1527,
  "\u2581participer": 1528,
  "\u2581long": 1529,
  "\u2581aurait": 1530,
  "\u2581\u0627\u0644\u0646\u0627\u0633": 1531,
  "\u2581\u0627\u0644\u0645\u0634\u062a\u0631\u0643": 1532,
  "\u2581lois": 1533,
  "\u2581\u0639\u0645\u0644\u0627": 1534,
  "\u2581efficace": 1535,
  "\u2581\u0636\u0645\u0646": 1536,
  "\u2581\u0627\u0644\u0645\u0624\u0642\u062a": 1537,
  "\u2581\u064a\u0642\u0648\u0645": 1538,
  "\u2581\u062f\u0648\u0644": 1539,
  "\u2581aucun": 1540,
  "\u2581\u0646\u0641\u0633": 1541,
  "\u2581\u0635\u0646\u062f\u0648\u0642": 1542,
  "\u2581\u0627\u0644\u062e\u0627\u0645\u0633\u0629": 1543,
  "\u2581mat\u00e9riel": 1544,
  "\u2581fonction": 1545,
  "\u2581trop": 1546,
  "\u2581Ne": 1547,
  "\u2581\u0627\u0644\u0623\u062e\u064a\u0631\u0629": 1548,
  "\u2581Merci": 1549,
  "\u2581\u0627\u0644\u0623\u0631\u0627\u0636\u064a": 1550,
  "\u2581\u064a\u062a\u0635\u0644": 1551,
  "\u2581\u0627\u0644\u0623\u0633\u0627\u0633\u064a": 1552,
  "\u2581\u0644\u062a\u0646\u0641\u064a\u0630": 1553,
  "\u2581\u0648\u0646": 1554,
  "\u2581\u0648\u0632\u0627\u0631\u0629": 1555,
  "\u2581prot\u00e9ger": 1556,
  "\u2581vigueur": 1557,
  "\u2581\u0647": 1558,
  "\u2581\u0627\u0644\u0634\u0639\u0648\u0628": 1559,
  "\u2581partenaires": 1560,
  "examen": 1561,
  "\u2581\u0628\u064a\u0627\u0646\u0627\u062a": 1562,
  "les": 1563,
  "\u2581diff\u00e9rents": 1564,
  "\u2581collaboration": 1565,
  "\u2581fais": 1566,
  "\u2581\u0623\u0645\u0627": 1567,
  "\u2581\u0627\u0644\u062b\u0627\u0644\u062b": 1568,
  "\u2581\u0623\u0639\u0631\u0641": 1569,
  "programme": 1570,
  "\u2581commun": 1571,
  "\u2581\u0623\u0646\u0643": 1572,
  "\u2581\u0645\u0643\u0627\u0646": 1573,
  "\u2581\u0627\u0644\u0645\u0646\u0627\u0639\u0629": 1574,
  "\u2581objet": 1575,
  "\u2581\u0627\u0644\u062a\u062c\u0627\u0631\u064a\u0629": 1576,
  "\u25812010": 1577,
  "\u2581\u0648\u0625\u0644\u0649": 1578,
  "\u2581guerre": 1579,
  "\u2581\u0627\u0644\u062d\u062f": 1580,
  "\u2581\u0627\u0644\u0627\u0633\u062a\u0639\u0631\u0627\u0636": 1581,
  "\u2581adoption": 1582,
  "\u2581\u0623\u0631\u064a\u062f": 1583,
  "\u2581\u0627\u0644\u0625\u0639\u0644\u0627\u0645": 1584,
  "\u2581\u0662": 1585,
  "\u2581\u0627\u0644\u062d\u0627\u0644\u064a\u0629": 1586,
  "\u2581contexte": 1587,
  "\u2581parce": 1588,
  "\u2581\u0627\u0644\u0633\u064a\u062f\u0629": 1589,
  "\u2581dernier": 1590,
  "\u2581\u0627\u0644\u0642\u0631\u0627\u0631\u0627\u062a": 1591,
  "\u2581R": 1592,
  "\u2581pourquoi": 1593,
  "\u2581pourraient": 1594,
  "\u2581\u0648\u062c\u0647": 1595,
  "\u2581statut": 1596,
  "\u2581Centre": 1597,
  "\u2581\u0648\u063a\u064a\u0631": 1598,
  "\u2581strat\u00e9gies": 1599,
  "\u2581juridiques": 1600,
  "\u2581sorte": 1601,
  "c": 1602,
  "\u2581\u064a\u0648\u062c\u062f": 1603,
  "\u2581r\u00e9forme": 1604,
  "\u2581\u0627\u0644\u0641\u0635\u0644": 1605,
  "\u2581\u0627\u0644\u0627\u062a\u062c\u0627\u0631": 1606,
  "\u2581pass\u00e9": 1607,
  "\u2581souvent": 1608,
  "\u2581\u062a\u0643\u0627\u0644\u064a\u0641": 1609,
  "\u2581\u062c\u0647\u0648\u062f": 1610,
  "\u2581observations": 1611,
  "\u0647\u0646": 1612,
  "\u2581\u0645\u062f\u0649": 1613,
  "\u2581\u0628\u0623\u0646\u0647": 1614,
  "\u2581\u0627\u0644\u0623\u0645\u0648\u0627\u0644": 1615,
  "\u2581\u0639\u0634\u0631\u0629": 1616,
  "\u2581\u0627\u0644\u0639\u062f\u064a\u062f": 1617,
  "\u2581\u062a\u0645\u0648\u064a\u0644": 1618,
  "\u2581forme": 1619,
  "\u2581\u0627\u0644\u0627\u062c\u062a\u0645\u0627\u0639\u064a": 1620,
  "\u2581financi\u00e8re": 1621,
  "\u2581\u0646\u0633\u0628\u0629": 1622,
  "\u2581aspects": 1623,
  "\u2581\u0627\u0644\u0645\u0633\u0644\u062d\u0629": 1624,
  "\u2581\u0644\u0644\u062f\u0648\u0644": 1625,
  "\u2581sens": 1626,
  "\u2581cr\u00e9\u00e9": 1627,
  "in": 1628,
  "\u2581chez": 1629,
  "\u2581\u0627\u0644\u062d\u0627\u062c\u0629": 1630,
  "\u2581no": 1631,
  "\u2581\u0627\u0644\u062c\u0632\u0621": 1632,
  "\u2581mes": 1633,
  "\u2581\u0631\u0633\u0627\u0644\u0629": 1634,
  "\u2581\u0627\u0644\u062c\u062f\u0648\u0644": 1635,
  "\u2581Oh": 1636,
  "\u2581trouver": 1637,
  "et": 1638,
  "(.": 1639,
  "\u2581priv\u00e9": 1640,
  "\u2581\u0623\u064a\u0646": 1641,
  "\u2581\u0648\u0642\u0627\u0644": 1642,
  "\u2581appliquer": 1643,
  "\u2581\u2014": 1644,
  "\u2581\u0633\u064a\u0643\u0648\u0646": 1645,
  "aide": 1646,
  "\u2581articles": 1647,
  "\u2581\u0646\u062a\u064a\u062c\u0629": 1648,
  "\u2581davantage": 1649,
  "\u2581N": 1650,
  "\u2581\u0645\u0633\u0627\u0639\u062f\u0629": 1651,
  "\u2581\u00e9tabli": 1652,
  "\u2581risques": 1653,
  "\u0645\u0646": 1654,
  "\u2581comment": 1655,
  "\u2581veiller": 1656,
  "\u2581\u0634\u0643\u0631\u0627": 1657,
  "\u2581civils": 1658,
  "\u2581\u0627\u0644\u062a\u0646\u0633\u064a\u0642": 1659,
  "\u2581capacit\u00e9": 1660,
  "\u2581bureaux": 1661,
  "\u2581plans": 1662,
  "\u2581\u0627\u0644\u0648\u0643\u0627\u0644\u0627\u062a": 1663,
  ".2": 1664,
  "\u2581\u0644\u062a\u062d\u0642\u064a\u0642": 1665,
  "\u2581\u0627\u0644\u0627\u0633\u062a\u0631\u0627\u062a\u064a\u062c\u064a\u0629": 1666,
  "\u2581planification": 1667,
  "\u2581nucl\u00e9aire": 1668,
  "\u2581n\u00e9gociations": 1669,
  "\u2581engagements": 1670,
  "\u2581poste": 1671,
  "\u2581divers": 1672,
  "la": 1673,
  "\u2581changements": 1674,
  "\u2581\u0627\u0644\u0645\u0645\u062b\u0644": 1675,
  "\u2581\u0627\u0644\u0639\u0647\u062f": 1676,
  "\u2581appel": 1677,
  "\u2581\u0627\u0644\u0645\u0646\u0627\u062e": 1678,
  "\u2581\u0645\u0628\u0627\u0634\u0631\u0629": 1679,
  "\u2581poursuivre": 1680,
  "\u2581\u0646\u0645\u0648\u0627": 1681,
  "\u2581\u0646\u0648\u0639": 1682,
  "\u2581\u0627\u0644\u062a\u0627\u0628\u0639": 1683,
  "\u2581permanent": 1684,
  "\u2581\u062a\u0634\u064a\u0631": 1685,
  "\u2581\u0627\u0644\u0633\u0646\u0648\u0627\u062a": 1686,
  "\u2581\u062a\u0632\u0627\u0644": 1687,
  "\u2581\u0645\u0634\u0627\u0631\u0643\u0629": 1688,
  "\u2581\u0625\u0636\u0627\u0641\u064a\u0629": 1689,
  "\u2581Dieu": 1690,
  "\u2581points": 1691,
  "\u2581VIH": 1692,
  "\u2581permis": 1693,
  "\u2581crime": 1694,
  "\u2581recommande": 1695,
  "ation": 1696,
  "\u2581\u0627\u0644\u062a\u0648\u0635\u064a\u0627\u062a": 1697,
  "\u2581\u062e\u0627\u0631\u062c": 1698,
  "\u2581\u0623\u0639\u062a\u0642\u062f": 1699,
  "\u2581\u0644\u0644\u062a\u0646\u0645\u064a\u0629": 1700,
  "\u2581\u0628\u062f": 1701,
  "\u2581\u0643\u0644\u0627": 1702,
  "\u2581croissance": 1703,
  "\u2581\u0627\u0644\u0648\u0635\u0648\u0644": 1704,
  "\u2581\u0627\u0644\u062a\u0645\u0648\u064a\u0644": 1705,
  "\u2581\u00e9laboration": 1706,
  "\u2581s\u00fbr": 1707,
  "\u2581garantir": 1708,
  "\u2581\u0644\u062c\u0645\u064a\u0639": 1709,
  "\u2581\u0627\u0644\u0648\u0641\u0648\u062f": 1710,
  "\u2581int\u00e9rieur": 1711,
  "\u2581\u0627\u0644\u0639\u0633\u0643\u0631\u064a\u0629": 1712,
  "\u2581\u0648\u0625\u0646": 1713,
  "\u2581zone": 1714,
  "\u2581aller": 1715,
  "\u2581partir": 1716,
  "\u2581dois": 1717,
  "\u2581quelques": 1718,
  "\u2581cause": 1719,
  "\u2581\u0627\u0644\u062a\u0648\u062c\u064a\u0647\u064a\u0629": 1720,
  "\u2581Trait\u00e9": 1721,
  "\u2581technologies": 1722,
  "\u2581\u062a\u0637\u0644\u0628": 1723,
  "\u2581r\u00e9serve": 1724,
  "\u2581\u0627\u0644\u0646\u062a\u0627\u0626\u062c": 1725,
  "\u2581suivants": 1726,
  "\u2581parler": 1727,
  "\u2581faits": 1728,
  "\u2581traite": 1729,
  "\u2581\u062a\u0639\u0645\u0644": 1730,
  "\u2581diverses": 1731,
  "\u2581faites": 1732,
  "\u2581Am\u00e9rique": 1733,
  "\u2581\u00e9tablir": 1734,
  "\u2581\u0627\u0644\u0627": 1735,
  "\u2581anglais": 1736,
  "\u2581\u0628\u0627\u0644\u0645": 1737,
  "\u2581\u062a\u0648\u0635\u064a\u0627\u062a": 1738,
  "\u2581ait": 1739,
  "\u2581\u0627\u0644\u0631\u062c\u0644": 1740,
  "\u2581Charte": 1741,
  "\u2581d\u00e9fense": 1742,
  "\u2581\u0627\u0644\u0648\u062b\u0627\u0626\u0642": 1743,
  "\u2581participants": 1744,
  "\u2581\u0627\u0644\u0645\u062c\u0627\u0644": 1745,
  "D": 1746,
  "\u2581\u0627\u0644\u0623\u0641\u0631\u064a\u0642\u064a": 1747,
  "\u2581\u062d\u0627\u0644": 1748,
  "autre": 1749,
  "\u258160": 1750,
  "\u2581\u062a\u0637\u0628\u064a\u0642": 1751,
  "\u2581\u0628\u0627\u0644\u062a\u0639\u0627\u0648\u0646": 1752,
  "\u2581\u0643\u0645": 1753,
  "\u2581valeur": 1754,
  "\u2581m\u00e9canisme": 1755,
  "\u2581\u0627\u0644\u062a\u0643\u0627\u0644\u064a\u0641": 1756,
  "\u2581\u0644\u0634\u0624\u0648\u0646": 1757,
  "2": 1758,
  "\u2581suppl\u00e9mentaires": 1759,
  "\u2581cinquante": 1760,
  "\u2581\u0634\u0624\u0648\u0646": 1761,
  "\u2581responsables": 1762,
  "i": 1763,
  "\u2581comptes": 1764,
  "\u2581risque": 1765,
  "\u0640\u0640\u0640\u0640": 1766,
  "\u2581\u0644\u0636\u0645\u0627\u0646": 1767,
  "\u2581\u0627\u0644\u0643\u062b\u064a\u0631": 1768,
  "\u2581propos\u00e9": 1769,
  "\u2581interne": 1770,
  "\u063a": 1771,
  "\u2581veut": 1772,
  "\u2581Division": 1773,
  "\u2581mal": 1774,
  "ent": 1775,
  "re": 1776,
  "\u2581\u062b\u0644\u0627\u062b\u0629": 1777,
  "\u2581Isra\u00ebl": 1778,
  "\u2581propositions": 1779,
  "\u2581\u0628\u0627\u0644\u0641\u0639\u0644": 1780,
  "\u2581pense": 1781,
  "\u2581tel": 1782,
  "\u2581\u0627\u0644\u062e\u0627\u0631\u062c\u064a\u0629": 1783,
  "\u2581aujourd": 1784,
  "\u2581G": 1785,
  "\u2581avis": 1786,
  "\u2581soins": 1787,
  "\u25813.": 1788,
  "\u2581fond": 1789,
  "\u2581\u0627\u0644\u0646\u0645\u0648": 1790,
  "\u2581\u0627\u0644\u0645\u062d\u0644\u064a": 1791,
  "\u2581judiciaire": 1792,
  "\u2581Quoi": 1793,
  "\u2581financiers": 1794,
  "\u2581\u0627\u0644\u062d\u0645\u0627\u064a\u0629": 1795,
  "\u2581\u0627\u0644\u062d\u062f\u0648\u062f": 1796,
  "\u2581Mon": 1797,
  "\u2581derni\u00e8re": 1798,
  "\u2581continue": 1799,
  "\u2581\u0627\u0644\u0642\u0636\u0627\u0626\u064a\u0629": 1800,
  "\u2581\u0627\u0644\u0647\u062f\u0641": 1801,
  "\u2581disposition": 1802,
  "\u2581r\u00e9pondre": 1803,
  "\u2581\u0627\u0644\u0645\u0632\u064a\u062f": 1804,
  "\u2581proposition": 1805,
  "\u0651\u064f": 1806,
  "\u2581m\u00e9thodes": 1807,
  "\u2581\u0625\u0633\u0631\u0627\u0626\u064a\u0644": 1808,
  "\u2581soulign\u00e9": 1809,
  "\u2581\u0627\u0644\u0647\u064a\u0626\u0629": 1810,
  "\u2581\u0663": 1811,
  "\u2581humaines": 1812,
  "appui": 1813,
  "\u2581\u0627\u0644\u0637\u0627\u0642\u0629": 1814,
  "\u2581Ministre": 1815,
  "accord": 1816,
  "\u2581\u0627\u0644\u0633\u0646\u0629": 1817,
  "\u2581\u0648\u0627\u0644\u062a\u0639\u0627\u0648\u0646": 1818,
  "\u2581plupart": 1819,
  "AC": 1820,
  "\u2581\u0644\u062f\u064a": 1821,
  "\u2581\u0646\u0642\u0644": 1822,
  "\u2581\u0627\u0644\u062f\u0627\u062e\u0644\u064a": 1823,
  "\u2581\u0627\u0644\u0639\u0645\u0644\u064a\u0627\u062a": 1824,
  "\u2581Mill\u00e9naire": 1825,
  "\u2581\u0628\u064a": 1826,
  "exercice": 1827,
  "\u2581\u0627\u0633\u062a\u0631\u0627\u062a\u064a\u062c\u064a\u0629": 1828,
  "\u2581d\u00e9clarations": 1829,
  "\u2581\u0627\u0644\u0633\u0644\u0637\u0629": 1830,
  "\u2581\u0627\u0644\u0631\u0627\u0628\u0639\u0629": 1831,
  "\u2581bureau": 1832,
  "\u2581\u0644\u0644\u062c\u0645\u0639\u064a\u0629": 1833,
  "\u2581\u0622\u0633\u064a\u0627": 1834,
  "\u2581int\u00e9r\u00eat": 1835,
  "\u2581\u0644\u0623\u063a\u0631\u0627\u0636": 1836,
  "\u2581\u0645\u0639\u0627\u0647\u062f\u0629": 1837,
  "\u25812011": 1838,
  ")\u061f": 1839,
  "\u2581Point": 1840,
  "\u2581lequel": 1841,
  "\u2581\u0631\u062c\u0644": 1842,
  "\u062a\u0627\u0646": 1843,
  "\u2581\u0627\u0644\u0645\u062e\u062f\u0631\u0627\u062a": 1844,
  "\u2581demandes": 1845,
  "\u2581Sous": 1846,
  "\u2581seul": 1847,
  "\u2581march\u00e9": 1848,
  "\u2581\u062a\u0645\u0627\u0645\u0627": 1849,
  "\u2581\u0648\u0628\u0646\u0627\u0621": 1850,
  "\u2581\u0627\u0644\u0645\u0627\u0644\u064a": 1851,
  "\u2581\u0645\u0631\u0627\u0639\u0627\u0629": 1852,
  "\u2581principaux": 1853,
  "\u2581\u0625\u0642\u0627\u0645\u0629": 1854,
  "\u2581\u0645\u0633\u0627\u0626\u0644": 1855,
  "\u2581lorsque": 1856,
  "\u2581\u0644\u0630\u0627": 1857,
  "\u2581directives": 1858,
  "\u2581\u0628\u0647\u0630\u0647": 1859,
  "\u0661": 1860,
  "\u2581\u0627\u0644\u0647\u064a\u0626\u0627\u062a": 1861,
  "\u2581agents": 1862,
  "\u2581\u0627\u0646\u0638\u0631": 1863,
  "\u2581\u0639\u0646\u0647": 1864,
  "\u2581\u0627\u0644\u062d\u0633\u0627\u0628\u0627\u062a": 1865,
  "\u2581\u0627\u0644\u062e\u062f\u0645\u0629": 1866,
  "\u25811998": 1867,
  "\u2581\u064a\u062a\u0639\u064a\u0646": 1868,
  "\u2581pr\u00e9vu": 1869,
  "\u2581\u0635\u062d\u064a\u062d": 1870,
  "\u2581\u0623\u0648\u0631\u0648\u0628\u0627": 1871,
  "\u2581\u00e9limination": 1872,
  "\u2581\u00e9tude": 1873,
  "\u2581r\u00e9gime": 1874,
  "\u2581Directeur": 1875,
  "\u2581\u062d\u0644": 1876,
  "\u2581\u0627\u0644\u062a\u0646\u0641\u064a\u0630\u064a\u0629": 1877,
  "\u2581\u0627\u0644\u0628\u0631\u0648\u062a\u0648\u0643\u0648\u0644": 1878,
  "\u2581parmi": 1879,
  "\u2581\u0644\u0647\u0645": 1880,
  "\u2581\u0627\u0644\u0627\u062a\u0641\u0627\u0642": 1881,
  "\u2581Plan": 1882,
  "\u2581\u062d\u062f\u062b": 1883,
  "\u2581\u0627\u0644\u062c\u0646\u0633": 1884,
  "\u258145": 1885,
  "\u2581\u062f\u0648\u0644\u064a\u0629": 1886,
  "\u2581\u0627\u0644\u0623\u0641\u0631\u064a\u0642\u064a\u0629": 1887,
  "ou": 1888,
  "\u2581i": 1889,
  "\u2581\u0627\u0644\u0645\u0641\u0648\u0636\u064a\u0629": 1890,
  "\u2581\u0627\u0644\u062c\u062f\u064a\u062f": 1891,
  "\u2581crois": 1892,
  "\u2581lettre": 1893,
  "\u2581\u0623\u0645": 1894,
  "h": 1895,
  "\u2581\u0627\u0644\u0641\u0636\u0627\u0621": 1896,
  "\u2581satisfaction": 1897,
  "\u2581soumis": 1898,
  "\u2581contribution": 1899,
  "\u0647\u0644": 1900,
  "\u2581\u0627\u0644\u0645\u0639\u0627\u064a\u064a\u0631": 1901,
  "\u2581\u0648\u0633\u064a": 1902,
  "\u2581\u0627\u0644\u062a\u0627\u0644\u064a": 1903,
  "\u2581\u062a\u0634\u0643\u0644": 1904,
  "\u2581\u062a\u0646\u0633\u064a\u0642": 1905,
  "\u2581possibilit\u00e9": 1906,
  "\u2581torture": 1907,
  "\u2581\u0627\u0644\u0643\u0627\u0645\u0644": 1908,
  "\u2581Gen\u00e8ve": 1909,
  "\u2581\u0623\u0641\u0631\u0627\u062f": 1910,
  "\u2581portant": 1911,
  "\u2581Sommet": 1912,
  "\u2581\u0627\u0644\u0631\u0639\u0627\u064a\u0629": 1913,
  "\u2581\u0648\u062b\u0627\u0626\u0642": 1914,
  "\u2581\u0645\u0648\u0627\u0631\u062f": 1915,
  "\u2581recommandation": 1916,
  "\u2581troisi\u00e8me": 1917,
  "\u062a\u0646\u0627": 1918,
  "par": 1919,
  "\u2581\u0623\u064a\u0629": 1920,
  "\u2581\u0628\u0635\u0641\u0629": 1921,
  "\u2581li\u00e9es": 1922,
  "\u2581\u0627\u0644\u0642\u0645\u0629": 1923,
  "\u2581\u0628\u0647\u062f\u0641": 1924,
  "\u2581Article": 1925,
  "\u2581centres": 1926,
  "\u2581\u0645\u0648\u0638\u0641\u064a": 1927,
  "\u2581\u0643\u062b\u064a\u0631\u0627": 1928,
  "*": 1929,
  "\u2581\u0627\u0644\u062f\u0627\u0626\u0645": 1930,
  "ais": 1931,
  "\u2581nature": 1932,
  "\u2581faisant": 1933,
  "\u2581intitul\u00e9": 1934,
  "\u2581populations": 1935,
  "\u2581\u0627\u0644\u062d\u0643\u0645": 1936,
  "\u2581\u0627\u0644\u0645\u064a\u0627\u0647": 1937,
  "\u2581eau": 1938,
  "\u2581diff\u00e9rentes": 1939,
  "\u2581terrain": 1940,
  "\u2581\u0627\u0644\u0623\u062c\u0644": 1941,
  "\u2581\u0633\u064a\u0627\u0633\u0627\u062a": 1942,
  "\u2581in": 1943,
  "\u2581Chine": 1944,
  "\u2581militaire": 1945,
  "\u064a\u0631": 1946,
  "\u258135": 1947,
  "\u2581\u0627\u0644\u0645\u062d\u0631\u0632": 1948,
  "\u2581\u0627\u0644\u0645\u0645\u0627\u0631\u0633\u0627\u062a": 1949,
  "\u2581difficult\u00e9s": 1950,
  "\u2581\u0627\u0644\u0623\u0631\u0636": 1951,
  "\u2581Qui": 1952,
  "\u2581V": 1953,
  "\u2581\u0645\u0624\u0633\u0633\u0627\u062a": 1954,
  "\u2581New": 1955,
  "\u2581publics": 1956,
  "\u2581\u00e9tablissement": 1957,
  "ra": 1958,
  "\u2581derni\u00e8res": 1959,
  "\u2581arabe": 1960,
  "\u2581\u0627\u0644\u062d\u0631\u0628": 1961,
  "\u2581\u0623\u0639\u0644\u0645": 1962,
  "\u2581\u0644\u0644\u0628\u0644\u062f\u0627\u0646": 1963,
  "\u2581donateurs": 1964,
  "\u2581\u0628\u062f\u0648\u0646": 1965,
  "\u25810": 1966,
  "\u2581p\u00e8re": 1967,
  "\u2581\u0627\u0644\u0627\u0639\u062a\u0628\u0627\u0631": 1968,
  "\u2581\u0627\u0644\u0645\u062d\u062f\u062f\u0629": 1969,
  "\u2581\u0648\u0637\u0646\u064a\u0629": 1970,
  "\u2581\u0644\u0633\u062a": 1971,
  "\u2581\u062d": 1972,
  "()": 1973,
  "\u2581\u0627\u0644\u062a\u0642\u064a\u064a\u0645": 1974,
  "\u2581\u0648\u0627\u0644\u062e\u0645\u0633\u064a\u0646": 1975,
  "\u2581locales": 1976,
  "\u2581six": 1977,
  "\u2581termes": 1978,
  "\u2581secteurs": 1979,
  "\u2581approche": 1980,
  "\u2581permettant": 1981,
  "\u2581convient": 1982,
  "\u2581nombreuses": 1983,
  "\u2581conclusions": 1984,
  "\u25811995": 1985,
  "\u2581\u0627\u0644\u0642\u0644\u0642": 1986,
  "\u2581telle": 1987,
  "\u2581\u0627\u0644\u0639\u0627\u062f\u064a\u0629": 1988,
  "\u2581auteurs": 1989,
  "\u2581d\u00e9tention": 1990,
  "\u2581propre": 1991,
  "\u2581augmentation": 1992,
  "\u2581pertinentes": 1993,
  "\u2581r\u00e9ponse": 1994,
  "\u2581\u0642\u062f\u0645": 1995,
  "\u2581Asie": 1996,
  "\u2581humains": 1997,
  "\u2581\u0627\u0644\u0627\u062a\u0635\u0627\u0644": 1998,
  "\u2581\u0627\u0644\u0645\u0633\u062a\u0642\u0628\u0644": 1999,
  "`": 2000,
  "\u2581preuve": 2001,
  "\u2581contribuer": 2002,
  "\u2581\u00e9tudes": 2003,
  "\u2581crise": 2004,
  "\u2581intention": 2005,
  "\u2581ex\u00e9cutif": 2006,
  "\u2581locaux": 2007,
  "\u00e9ducation": 2008,
  "\u2581adress\u00e9e": 2009,
  "\u2581sociales": 2010,
  "\u2581conf\u00e9rences": 2011,
  "an": 2012,
  "\u2581Toutefois": 2013,
  "\u2581\u062c\u0646\u064a\u0641": 2014,
  "\u2581porte": 2015,
  "\u2581\u0642\u0631\u0627\u0631\u0627\u062a": 2016,
  "\u2581\u0627\u0644\u0637\u0644\u0628": 2017,
  "\u2581\u0627\u0644\u0645\u062b\u0627\u0644": 2018,
  "\u2581\u0645\u062c\u0645\u0648\u0639": 2019,
  "\u2581f\u00e9licite": 2020,
  "\u2581petit": 2021,
  "\u2581\u0648\u062d\u062f\u0629": 2022,
  "\u2581\u0627\u0644\u062a\u0642\u0646\u064a": 2023,
  "\u2581gens": 2024,
  "\u2581analyse": 2025,
  "M": 2026,
  "\u2581Royaume": 2027,
  "\u2581\u0627\u0644\u0642\u0648\u0627\u062a": 2028,
  "\u2581\u0648\u062a\u0646\u0641\u064a\u0630": 2029,
  "\u062e": 2030,
  "\u2581territoires": 2031,
  "\u2581g": 2032,
  "\u2581communications": 2033,
  "\u2581\u064a\u0634\u0643\u0644": 2034,
  "\u2581\u062c\u064a\u062f": 2035,
  "\u2581\u0627\u0644\u062f\u0627\u0626\u0645\u0629": 2036,
  "\u2581\u0627\u0644\u0643\u0648\u0646\u063a\u0648": 2037,
  "\u2581\u0648\u0625\u0639\u0627\u062f\u0629": 2038,
  "\u2581vrai": 2039,
  "\u062a\u0643\u0644\u0645": 2040,
  "\u2581financier": 2041,
  "\u2581\u064a\u062c\u0648\u0632": 2042,
  "\u2581\u0627\u0644\u0642\u0648\u0627\u0646\u064a\u0646": 2043,
  "\u2581\u062a\u0637\u0648\u064a\u0631": 2044,
  "\u2581\u0627\u0644\u0645\u0642\u0631\u0631\u0629": 2045,
  "\u2581but": 2046,
  "\u2581transition": 2047,
  "\u2581\u0627\u0644\u0633\u0627\u062f\u0633\u0629": 2048,
  "\u2581\u0627\u0644\u0628\u062d\u0631": 2049,
  "\u2581\u0644\u0623": 2050,
  "\u2581\u0641\u062d\u0633\u0628": 2051,
  "ez": 2052,
  "\u2581\u0627\u0644\u0631\u063a\u0645": 2053,
  "\u2581\u062a\u0642\u0631\u064a\u0631\u0627": 2054,
  "\u2581lorsqu": 2055,
  "\u2581\u0627\u0644\u0646\u0642\u0644": 2056,
  "\u2581\u0627\u0644\u0628\u064a\u0626\u064a\u0629": 2057,
  "\u2581\u0641\u0631\u0635": 2058,
  "\u2581demander": 2059,
  "\u2581peine": 2060,
  "\u2581\u0627\u0644\u0628\u0631\u0646\u0627\u0645\u062c\u064a\u0629": 2061,
  "\u2581force": 2062,
  "\u2581donne": 2063,
  "\u2581\u0627\u0644\u0642\u0627\u0646\u0648\u0646\u064a": 2064,
  "\u2581\u0642\u0627\u0645": 2065,
  "\u2581\u0648\u0633\u062a": 2066,
  "\u2581\u0644\u0644\u0645\u0631\u0623\u0629": 2067,
  "\u25812012": 2068,
  "al": 2069,
  "\u2581III": 2070,
  "\u2581\u064a\u0645\u0643\u0646\u0643": 2071,
  "\u2581an": 2072,
  "\u2581\u0627\u0644\u062c\u0647\u0627\u062a": 2073,
  "\u2581efficacit\u00e9": 2074,
  "\u2581\u0631\u0635\u062f": 2075,
  "\u2581500": 2076,
  "\u2581fonctionnement": 2077,
  "\u2581\u0648\u0644\u0627\u064a\u0629": 2078,
  "\u2581\u0634\u064a\u0626\u0627": 2079,
  "\u2581F\u00e9d\u00e9ration": 2080,
  "\u2581\u0628\u064a\u062f": 2081,
  "\u0662": 2082,
  "\u2581\u0671\u0644": 2083,
  "\u2581\u00e9tablissements": 2084,
  "\u2581occasion": 2085,
  "\u2581dat\u00e9e": 2086,
  "Afrique": 2087,
  "\u2581confiance": 2088,
  "\u2581\u064a\u0632\u0627\u0644": 2089,
  "\u2581\u0647\u064a\u0626\u0629": 2090,
  "\u2581\u0644\u0645\u0646\u0639": 2091,
  "\u2581d\u00e9terminer": 2092,
  "\u2581\u0627\u0644\u0645\u062a\u0639\u062f\u062f\u0629": 2093,
  "\u2581\u0645\u0639\u0627\u0644\u062c\u0629": 2094,
  "/2": 2095,
  "\u2581recommand\u00e9": 2096,
  "\u2581pr\u00e9venir": 2097,
  "\u2581adopt\u00e9e": 2098,
  "\u2581trait\u00e9s": 2099,
  "\u2581\u0627\u0644\u0645\u062a\u0627\u062d\u0629": 2100,
  "\u2581africaine": 2101,
  "\u2581Russie": 2102,
  "\u2581\u0628\u062e\u064a\u0631": 2103,
  "\u2581march\u00e9s": 2104,
  "\u2581\u0627\u0644\u0648\u0627\u0642\u0639": 2105,
  "\u2581Code": 2106,
  "\u2581\u0627\u0644\u0633\u064a\u0627\u0633\u064a": 2107,
  "\u2581\u0623\u0648\u0644\u0627": 2108,
  "\u2581not\u00e9": 2109,
  "\u2581d\u00e9but": 2110,
  "\u2581Cela": 2111,
  "\u2581seraient": 2112,
  "\u2581men\u00e9es": 2113,
  "\u2581m\u00e8re": 2114,
  "elles": 2115,
  "\u2581York": 2116,
  "\u2581\u0627\u0644\u0637\u0628\u064a\u0639\u064a\u0629": 2117,
  "\u2581\u0627\u0644\u0622\u0631\u0627\u0621": 2118,
  "\u2581large": 2119,
  "\u2581\u062a\u0639\u0631\u0641": 2120,
  "\u2581\u0634\u0643\u0644": 2121,
  "\u2581\u0631\u0633\u0645\u064a\u0629": 2122,
  "\u2581\u0639\u0644\u064a\u0646\u0627": 2123,
  "\u2581\u0648\u062a\u0642\u062f\u064a\u0645": 2124,
  "\u2581\u0627\u0644\u0627\u0633\u062a\u062b\u0645\u0627\u0631": 2125,
  "\u2581\u0645\u0639\u0638\u0645": 2126,
  "hui": 2127,
  "\u2581agissant": 2128,
  "\u2581\u0627\u062c\u062a\u0645\u0627\u0639\u0627\u062a": 2129,
  "\u2581\u0647\u0624\u0644\u0627\u0621": 2130,
  "\u2581\u0646\u0647\u062c": 2131,
  "\u2581\u0627\u0644\u0645\u0642\u062a\u0631\u062d\u0629": 2132,
  "\u2581\u0627\u0644\u0625\u0637\u0627\u0631": 2133,
  "\u2581\u0633\u0648\u0627\u0621": 2134,
  "\u2581caract\u00e8re": 2135,
  "\u2581\u0644\u0644\u0623\u0644\u0641\u064a\u0629": 2136,
  "f": 2137,
  "\u2581transport": 2138,
  "\u2581importante": 2139,
  "\u2581adopter": 2140,
  "\u2581enqu\u00eate": 2141,
  "\u2581membre": 2142,
  "\u2581\u0627\u0644\u0623\u0641\u0631\u0627\u062f": 2143,
  "\u2581humanitaires": 2144,
  "b": 2145,
  "\u2581administratives": 2146,
  "\u2581\u0627\u0644\u062c\u0646\u0633\u064a": 2147,
  "\u2581auteur": 2148,
  "\u2581\u0647\u064a\u0627": 2149,
  "\u2581\u0664": 2150,
  "\u2581obtenir": 2151,
  "\u2581pr\u00e8s": 2152,
  "\u2581\u0648\u064a\u062c\u0628": 2153,
  "\u2581seule": 2154,
  "dessus": 2155,
  "\u2581r\u00e9gionale": 2156,
  "\u2581Se": 2157,
  "\u2581chef": 2158,
  "\u2581\u0627\u0644\u0623\u0633\u0631\u0629": 2159,
  "\u2581surveillance": 2160,
  "\u2581\u0645\u062e\u062a\u0644\u0641\u0629": 2161,
  "\u2581\u0627\u0644\u0645\u062c\u0627\u0644\u0627\u062a": 2162,
  "\u2581violation": 2163,
  "\u2581co\u00fbts": 2164,
  "\u2581enseignement": 2165,
  "u": 2166,
  "\u2581\u0643\u064a": 2167,
  "\u2581\u0644\u062f\u0639\u0645": 2168,
  "\u2581\u062a\u0634\u062c\u064a\u0639": 2169,
  "\u2581\u063a\u0631\u0641\u0629": 2170,
  "\u2581\u062b\u0644\u0627\u062b": 2171,
  "\u258132": 2172,
  "\u2581transfert": 2173,
  "\u2581cons\u00e9quences": 2174,
  "\u2581arm\u00e9s": 2175,
  "\u2581O\u00f9": 2176,
  "avoir": 2177,
  "\u2581d\u00e9clar\u00e9": 2178,
  "\u2581\u0627\u0644\u0645\u0642\u062f\u0645": 2179,
  "\u2581strat\u00e9gique": 2180,
  "\u2581\u0645\u062d\u0643\u0645\u0629": 2181,
  "\u2581\u0627\u0644\u0623": 2182,
  "\u2581Prie": 2183,
  "\u2581\u0627\u0644\u0648\u0627\u0631\u062f": 2184,
  "\u2581constitue": 2185,
  "\u2581\u0644\u0645\u062f\u0629": 2186,
  "\u2581\u0641\u0639\u0627\u0644\u0629": 2187,
  "\u2581jouer": 2188,
  "\u2581\u0639\u0631\u0636": 2189,
  "\u2581\u0623\u0645\u0648\u0631": 2190,
  "\u2581Ma": 2191,
  "\u0645\u0629": 2192,
  "\u2581\u0627\u0644\u0633\u0648\u062f\u0627\u0646": 2193,
  "\u2581\u0627\u0646\u062a\u0634\u0627\u0631": 2194,
  "\u2581\u062f\u0627\u0626\u0645\u0627": 2195,
  "\u2581\u0648\u0639\u062f\u0645": 2196,
  "\u2581\u0642\u062f\u0631\u0629": 2197,
  "\u2581\u0627\u0644\u0642\u0648\u0629": 2198,
  "\u2581\u0645\u0645\u0627\u0631\u0633\u0629": 2199,
  "\u2581\u0644\u0644\u0633\u0643\u0627\u0646": 2200,
  "\u2581\u0627\u0644\u0646\u0648\u0648\u064a": 2201,
  "\u064a\u0647": 2202,
  "\u2581\u0627\u0644\u0645\u0631\u0643\u0632": 2203,
  "\u0648\u064a": 2204,
  "\u2581\u0642\u0637\u0627\u0639": 2205,
  "\u25814.": 2206,
  "\u2581\u0628\u0627\u0633\u0645": 2207,
  "\u2581\u0642\u0631\u0627\u0631\u0647\u0627": 2208,
  "\u2581\u0627\u0644\u0645\u0648\u0636\u0648\u0639": 2209,
  "\u2581\u062f\u0631\u0627\u0633\u0629": 2210,
  "\u2581d\u00fb": 2211,
  "\u2581\u0645\u0631\u062d\u0628\u0627": 2212,
  "\u2581\u0627\u0644\u0645\u0639\u0627\u0647\u062f\u0629": 2213,
  "\u0627\u0644\u0645": 2214,
  "\u2581Allez": 2215,
  "\u2581\u0645\u0624\u062e\u0631\u0627": 2216,
  "\u2581existe": 2217,
  "\u2581importe": 2218,
  "\u2581\u0627\u0644\u0645\u0627\u0636\u064a": 2219,
  "\u064a\u064a\u0646": 2220,
  "\u2581\u0627\u0644\u0639\u062f\u0644": 2221,
  "\u2581\u0622\u0644\u064a\u0629": 2222,
  "\u2581sp\u00e9ciales": 2223,
  "\u2581devait": 2224,
  "\u0644\u064a": 2225,
  "\u2581\u2212": 2226,
  "\u2581apporter": 2227,
  "\u2581communaut\u00e9s": 2228,
  "\u2581suivre": 2229,
  "\u2581aura": 2230,
  "\u258134": 2231,
  "\u2581\u0648\u0641\u062f": 2232,
  "\u2581\u0627\u0644\u0648\u0643\u0627\u0644\u0629": 2233,
  "\u2581sources": 2234,
  "\u2581graves": 2235,
  "\u2581\u0645\u0648\u062c\u0647\u0629": 2236,
  "\u2581\u0627\u0644\u0641\u0631\u0639\u064a": 2237,
  "\u2581\u0627\u0644\u0645\u0633\u0624\u0648\u0644\u064a\u0629": 2238,
  "\u2581voie": 2239,
  "\u2581200": 2240,
  "\u2581adopt\u00e9es": 2241,
  "\u2581\u0648\u0628\u0631\u0646\u0627\u0645\u062c": 2242,
  "\u258137": 2243,
  "\u062a\u0647\u0645": 2244,
  "\u2581\u0623\u0648\u062f": 2245,
  "\u2581\u062c\u064a\u0645": 2246,
  "org": 2247,
  "\u2581\u0645\u0630\u0643\u0631\u0629": 2248,
  "art": 2249,
  "\u2581co\u00fbt": 2250,
  "\u2581\u0627\u0644\u0642\u062f\u0631\u0629": 2251,
  "\u2581\u0627\u0644\u0625": 2252,
  "\u2581\u00e9laborer": 2253,
  "\u201d": 2254,
  "environnement": 2255,
  "\u258148": 2256,
  "\u2581urgence": 2257,
  "\u2581Iraq": 2258,
  "\u2581\u00e9trang\u00e8res": 2259,
  "Uni": 2260,
  "\u2581Rappelant": 2261,
  "\u2581\u0648\u0638\u064a\u0641\u0629": 2262,
  "\u2581\u064a\u0634\u0645\u0644": 2263,
  "\u2581p": 2264,
  "\u2581re\u00e7u": 2265,
  "\u0639\u062f": 2266,
  "\u2581\u0627\u0644\u062d\u0627\u0644\u064a": 2267,
  "\u2581\u0646\u0634\u0631": 2268,
  "\u2581\u0627\u0644\u0633\u0627\u0628\u0642": 2269,
  "\u2581R\u00e9union": 2270,
  "\u2581prix": 2271,
  "\u2581\u0627\u0644\u062c\u0631\u0627\u0626\u0645": 2272,
  "1": 2273,
  "\u2581\u0648\u0644\u0644": 2274,
  "\u2581\u062a\u0623\u0643\u064a\u062f": 2275,
  "\u2581trafic": 2276,
  "\u2581charge": 2277,
  "Union": 2278,
  "\u2581paragraphes": 2279,
  "\u2581\u0642\u0636\u0627\u064a\u0627": 2280,
  "\u2581\u0645\u0646\u0627\u0637\u0642": 2281,
  "\u2581estime": 2282,
  "\u2581\u062a\u0631\u064a\u062f": 2283,
  "\u2581\u0627\u0644\u0638\u0631\u0648\u0641": 2284,
  "\u2581\u0645\u0645\u0643\u0646": 2285,
  ".5": 2286,
  "\u2581\u0645\u0639\u064a\u0646\u0629": 2287,
  "ur": 2288,
  "\u2581\u0646\u0641\u0633\u0647\u0627": 2289,
  "\u2581responsabilit\u00e9s": 2290,
  "\u2581engagement": 2291,
  "\u2581dis": 2292,
  "\u2581volont\u00e9": 2293,
  "\u2581\u0648\u0628\u0639\u062f": 2294,
  "G": 2295,
  "\u2581\u0623\u0647\u062f\u0627\u0641": 2296,
  "\u2581statistiques": 2297,
  "\u2581\u0627\u0633\u062a": 2298,
  "\u2581fondamentaux": 2299,
  "\u2581\u0627\u0644\u0625\u0639\u0644\u0627\u0646": 2300,
  "\u2581instamment": 2301,
  "\u2581\u0642\u0627\u0645\u062a": 2302,
  "\u25811997": 2303,
  "\u2581\u0627\u0644\u062a\u0648\u0635\u0644": 2304,
  "\u2581\u0644\u062f\u064a\u0643": 2305,
  "\u2581\u0627\u0633\u062a\u0645\u0631\u0627\u0631": 2306,
  "\u2581vas": 2307,
  "\u2581\u0627\u0644\u0648\u0636\u0639": 2308,
  "\u2581vote": 2309,
  "\u2581\u0645\u0639\u062f\u0644": 2310,
  "\u2581\u0623\u0635\u062d\u0627\u0628": 2311,
  "\u2581\u0622\u0644\u064a\u0627\u062a": 2312,
  "\u258133": 2313,
  "\u2581\u0634\u0628\u0643\u0629": 2314,
  "\u2581propres": 2315,
  "\u2581\u0646\u0635": 2316,
  "I": 2317,
  "\u2581succ\u00e8s": 2318,
  "\u2581\u062a\u0641\u0639\u0644": 2319,
  "\u258136": 2320,
  "\u2581lesquelles": 2321,
  "\u2581Service": 2322,
  "\u2581\u0627\u0644\u062d\u0648\u0627\u0631": 2323,
  "\u2581Constitution": 2324,
  "\u2581culture": 2325,
  "\u2581rapide": 2326,
  "\u2581\u062f\u0648\u0631\u0629": 2327,
  "parle": 2328,
  "\u2581propos": 2329,
  "\u2581\u0645\u0634\u0643\u0644\u0629": 2330,
  "(\u060c": 2331,
  "\u2581\u0628\u064a\u0646\u0645\u0627": 2332,
  "\u0628\u064a": 2333,
  "\u2581chefs": 2334,
  "\u2581\u0627\u0644\u0631\u0648\u0633\u064a": 2335,
  "administration": 2336,
  "\u2581\u0648\u0628\u062e\u0627\u0635\u0629": 2337,
  "\u2581Al": 2338,
  "\u2581\u0636\u0648\u0621": 2339,
  "\u2581Nord": 2340,
  ".6": 2341,
  "\u2581\u0623\u0646\u062d\u0627\u0621": 2342,
  "T": 2343,
  "\u2581\u0627\u0644\u0631\u0626\u064a\u0633\u064a": 2344,
  "\u2581\u0627\u0644\u0641\u0644\u0633\u0637\u064a\u0646\u064a\u0629": 2345,
  "\u2581prend": 2346,
  "\u2581condition": 2347,
  "\u2581\u0648\u0645\u0646\u0638\u0645\u0629": 2348,
  "\u2581\u0646\u0638\u0645": 2349,
  "\u2581()": 2350,
  "\u2581\u0641\u0639\u0627\u0644\u064a\u0629": 2351,
  "\u2581\u062a\u0646\u0645\u064a\u0629": 2352,
  "\u2581\u0627\u0644\u0641\u0646\u064a\u0629": 2353,
  "\u2581pouvoirs": 2354,
  "\u2581\u0628\u0643": 2355,
  "\u2581\u062a\u0624\u0643\u062f": 2356,
  "\u2581\u0627\u0644\u0645\u062f\u0646\u064a\u064a\u0646": 2357,
  "\u2581activit\u00e9": 2358,
  "\u2581\u0627\u0644\u0645\u0646\u0627\u0633\u0628": 2359,
  "\u2581\u0642\u0648\u0629": 2360,
  "\u2581\u0627\u0644\u062a\u0639\u0630\u064a\u0628": 2361,
  "\u2581possibilit\u00e9s": 2362,
  "\u2581disponibles": 2363,
  "\u2581publiques": 2364,
  "\u2581\u0645\u0632\u064a\u062f": 2365,
  "\u2581\u062a\u0648\u062c\u062f": 2366,
  "\u2581\u0627\u0644\u0625\u0646\u0633\u0627\u0646\u064a": 2367,
  "\u2581passe": 2368,
  "\u2581\u0645\u0628\u0627\u062f\u0626": 2369,
  "sida": 2370,
  "\u258139": 2371,
  "\u2581centrale": 2372,
  "m": 2373,
  "\u2581choses": 2374,
  "\u2581\u0644\u062a\u0642\u062f\u064a\u0645": 2375,
  "\u2581\u0627\u0644\u0645\u0642\u0631": 2376,
  "onform\u00e9ment": 2377,
  "\u2581entit\u00e9s": 2378,
  "\u2581venir": 2379,
  "\u2581suit": 2380,
  "\u2581dur\u00e9e": 2381,
  "\u2581\u0645\u0634\u0627\u0648\u0631\u0627\u062a": 2382,
  "\u2581Depuis": 2383,
  "\u2581\u062a\u0648\u0627\u0641\u0642": 2384,
  "\u2581Selon": 2385,
  "\u2581\u0627\u0644\u0633\u064a\u0627\u0633\u0629": 2386,
  "\u2581Congo": 2387,
  "\u2581\u0644\u0644\u063a\u0627\u064a\u0629": 2388,
  "\u2581li\u00e9s": 2389,
  "\u2581\u0648\u062d\u0645\u0627\u064a\u0629": 2390,
  "\u2581situations": 2391,
  "\u2581H": 2392,
  "\u2581\u0645\u0624\u0631\u062e\u0629": 2393,
  "\u0626": 2394,
  "\u2581efficaces": 2395,
  "\u2581\u0628\u0637\u0631\u064a\u0642\u0629": 2396,
  "\u2581quelqu": 2397,
  "\u2581\u0627\u0644\u0639": 2398,
  "\u2581\u00e9conomie": 2399,
  "\u2581priorit\u00e9s": 2400,
  "\u2581manque": 2401,
  "\u2581g\u00e9n\u00e9raux": 2402,
  "\u2581\u0642\u0648\u0627\u0639\u062f": 2403,
  "\u2581\u0627\u0644\u062c\u0646\u0633\u064a\u0629": 2404,
  "\u2581\u0628\u064a\u0627\u0646": 2405,
  "\u25811996": 2406,
  "\u2581\u0665": 2407,
  "\u2581\u0630\u0648\u064a": 2408,
  "\u2581\u0627\u0644\u0645\u0639\u0646\u0648\u0646": 2409,
  "\u2581\u0627\u0644\u0623\u0648\u0644\u0648\u064a\u0629": 2410,
  "\u2581\u0641\u0625\u0646\u0647": 2411,
  "\u2581\u062a\u0648\u0641\u0631": 2412,
  "\u2581\u062a\u0627\u0631\u064a\u062e": 2413,
  "\u00e9galit\u00e9": 2414,
  "\u2581frais": 2415,
  "\u2581\u0627\u0644\u0623\u0645\u0646\u064a\u0629": 2416,
  "\u2581palestinien": 2417,
  "\u2581\u0643\u0641\u0627\u0644\u0629": 2418,
  "\u2581\u0627\u0644\u0623\u0647\u0645\u064a\u0629": 2419,
  "m\u00eame": 2420,
  "\u2581CNUCED": 2421,
  "\u2581mer": 2422,
  "\u25812005,": 2423,
  "\u2581chapitre": 2424,
  "\u2581\u0631": 2425,
  "\u2581approuv\u00e9": 2426,
  "\u2581\u0627\u0644\u062f\u0641\u0627\u0639": 2427,
  "\u2581\u0627\u0644\u0634\u062e\u0635": 2428,
  "\u0628\u0631": 2429,
  "\u2581\u00e9lections": 2430,
  "\u0648\u062f": 2431,
  "\u2581\u0644\u0646\u0627": 2432,
  "\u2581\u0648\u0627\u0644\u062a": 2433,
  "\u2581\u064a\u062d\u062f\u062b": 2434,
  "\u2581\u0627\u0644\u062c\u0645\u0647\u0648\u0631\u064a\u0629": 2435,
  "\u2581grandes": 2436,
  "\u258155": 2437,
  "\u2581\u0647\u0645": 2438,
  "\u2581\u0627\u0644\u0645\u062c\u0645\u0648\u0639\u0629": 2439,
  "\u2581DES": 2440,
  "\u2581lutter": 2441,
  "\u2581\u0627\u0644\u062a\u0631\u0643\u064a\u0632": 2442,
  "\u2581respecter": 2443,
  "\u2581\u0627\u0644\u0623\u0644\u063a\u0627\u0645": 2444,
  "\u2581\u0627\u0644\u0645\u0624\u062a\u0645\u0631\u0627\u062a": 2445,
  "\u2581\u0648\u0627\u0644\u0639\u0634\u0631\u064a\u0646": 2446,
  "je": 2447,
  "\u2581drogues": 2448,
  "\u2581priorit\u00e9": 2449,
  "\u2581directement": 2450,
  "\u2581trait\u00e9": 2451,
  "\u2581\u0627\u0644\u062e\u0627\u0631\u062c\u064a": 2452,
  "\u2581\u062a\u0636\u0637\u0644\u0639": 2453,
  "\u2581p\u00e9nal": 2454,
  "\u2581direction": 2455,
  "\u2581mener": 2456,
  "\u2581\u0627\u0644\u0631\u0627\u0628\u0639": 2457,
  "\u2581\u0627\u0644\u0623\u062d\u0643\u0627\u0645": 2458,
  "\u2581\u0627\u0644\u062e\u0637\u0629": 2459,
  "\u0644\u0645": 2460,
  "\u00e9tais": 2461,
  "\u2581\u0627\u0644\u0648\u0638\u0627\u0626\u0641": 2462,
  "\u2581tard": 2463,
  "\u2581d\u00e9ploy\u00e9s": 2464,
  "\u2581\u0646\u0638\u0631\u0627": 2465,
  "\u2581\u062a\u0646\u0638\u0631": 2466,
  "\u2581maison": 2467,
  "\u2581\u0627\u0644\u0645\u0645\u0644\u0643\u0629": 2468,
  "\u2581\u0645\u0648\u0636\u0648\u0639": 2469,
  "\u2581Europe": 2470,
  "\u2581comp\u00e9tences": 2471,
  "\u2581organis\u00e9": 2472,
  "\u2581\u062e": 2473,
  "\u2581\u0627\u0630\u0627": 2474,
  "\u2581\u062c\u0631\u0649": 2475,
  "\u25815.": 2476,
  "\u2581puisse": 2477,
  "\u2581budg\u00e9taires": 2478,
  "\u2581\u0627\u0644\u0645\u0624\u0642\u062a\u0629": 2479,
  "\u2581\u0627\u0646\u0647\u0627": 2480,
  "\u2581figurant": 2481,
  ".3": 2482,
  "\u2581\u0627\u0644\u0639\u0627\u0645\u0644\u0629": 2483,
  "\u2581acte": 2484,
  "\u2581\u0627\u0644\u0634\u0639\u0628": 2485,
  "\u2581accomplis": 2486,
  "\u2581\u0648\u0643\u0627\u0646\u062a": 2487,
  "\u2581\u062d\u0644\u0642\u0629": 2488,
  "\u2581\u0647\u064a\u0626\u0627\u062a": 2489,
  "\u0631\u062a": 2490,
  "\u2581suivantes": 2491,
  "\u2581\u0627\u0644\u0641\u0626\u0629": 2492,
  "\u2581entendu": 2493,
  "\u2581atteindre": 2494,
  "\u2581R\u00e8glement": 2495,
  "\u2581\u0644\u062f\u064a\u0646\u0627": 2496,
  "\u2581\u0627\u0644\u0623\u0642\u0644": 2497,
  "\u2581\u0627\u0644\u0639\u0644\u064a\u0627": 2498,
  "\u2581\u0627\u0644\u0639\u0646\u0635\u0631\u064a": 2499,
  "\u2581ex": 2500,
  "\u2581pr\u00e9vues": 2501,
  "\u0646\u0649": 2502,
  "\u2581\u0642\u0636\u064a\u0629": 2503,
  "\u2581int\u00e9gration": 2504,
  "\u2581crimes": 2505,
  "\u0648\u0633": 2506,
  "\u0627\u0642": 2507,
  "\u2581\u0645\u0646\u0638\u0645\u0627\u062a": 2508,
  "\u062f\u064a": 2509,
  "\u2581\u0628\u0648\u0635\u0641\u0647\u0627": 2510,
  "\u2581\u0627\u0644\u0628\u062d\u0631\u064a\u0629": 2511,
  "\u2581rendu": 2512,
  "\u2581\u0645\u0646\u062d": 2513,
  ".4": 2514,
  "\u2581environ": 2515,
  "\u2581\u062d\u0627\u062c\u0629": 2516,
  "\u2581\u0628\u064a\u0646\u0647\u0627": 2517,
  "\u2581permanente": 2518,
  "\u2581\u0627\u0644\u0627\u0646": 2519,
  "\u2581\u0623\u0644\u064a\u0633": 2520,
  "\u2581\u0646\u064a\u0648\u064a\u0648\u0631\u0643": 2521,
  "\u2581\u0627\u0644\u0627\u0642\u062a\u0635\u0627\u062f": 2522,
  "\u2581\u0627\u0644\u062a\u062d\u0642\u064a\u0642": 2523,
  "\u2581\u0642\u064a\u062f": 2524,
  "\u2581appuyer": 2525,
  "\u2581Banque": 2526,
  "\u2581int\u00e9r\u00eats": 2527,
  "\u2581vos": 2528,
  "\u25812013": 2529,
  "\u2581\u0648\u0625\u062f\u0627\u0631\u0629": 2530,
  "\u2581traitements": 2531,
  "\u2581\u0645\u062a\u0627\u0628\u0639\u0629": 2532,
  "\u2581\u0625\u0635\u0644\u0627\u062d": 2533,
  "\u2581\u0644\u062d\u0645\u0627\u064a\u0629": 2534,
  "\u2581\u064a\u0639\u0646\u064a": 2535,
  "\u2581\u062f\u0648\u0631\u062a\u0647": 2536,
  "\u2581\u0627\u0644\u0627\u0642\u062a\u0636\u0627\u0621": 2537,
  "\u25811994": 2538,
  "\u00e9valuation": 2539,
  "\u2581\u0627\u0644\u0623\u0648\u0631\u0648\u0628\u064a\u0629": 2540,
  "\u2581\u0627\u0644\u0639\u062f\u0627\u0644\u0629": 2541,
  "\u2581Note": 2542,
  "4": 2543,
  "\u2581\u0627\u0644\u0627\u0644\u062a\u0632\u0627\u0645\u0627\u062a": 2544,
  "\u2581section": 2545,
  "\u0644\u062a": 2546,
  "\u2581\u0622\u062b\u0627\u0631": 2547,
  "\u2581\u062a\u0643\u0646": 2548,
  "\u2581\u062c": 2549,
  "\u2581*": 2550,
  "\u2581\u0628\u062d\u0644\u0648\u0644": 2551,
  "\u2581\u0645\u0642\u0627\u0628\u0644": 2552,
  "\u2581salle": 2553,
  "\u2581\u0642\u0627\u0639\u062f\u0629": 2554,
  "\u0627\u0631": 2555,
  "\u2581\u0648\u0648\u0641\u0642\u0627": 2556,
  "\u2581exp\u00e9rience": 2557,
  "\u2581parti": 2558,
  "\u2581\u062a\u0643\u0646\u0648\u0644\u0648\u062c\u064a\u0627": 2559,
  "\u2581\u0627\u0644\u0637\u0648\u0627\u0631\u0626": 2560,
  "\u2581essentiel": 2561,
  "\u2581quant": 2562,
  "\u25812002,": 2563,
  "\u2581\u0627\u0644\u0647\u0627\u062f\u0626": 2564,
  "\u2581sensibilisation": 2565,
  "\u2581particip\u00e9": 2566,
  "\u2581petits": 2567,
  "\u2581\u0623\u0645\u0631\u064a\u0643\u0627": 2568,
  "\u2581passer": 2569,
  "\u2581importants": 2570,
  "\u0627\u0644\u0625\u064a\u062f\u0632": 2571,
  "F": 2572,
  "\u2581sessions": 2573,
  "\u2581rapidement": 2574,
  "\u2581\u0627\u0644\u062f\u0648\u0644\u064a\u064a\u0646": 2575,
  "\u2581\u0645\u0631\u0627\u0643\u0632": 2576,
  "\u2581travailleurs": 2577,
  "\u2581\u0633\u0628\u0644": 2578,
  "\u2581Est": 2579,
  "\u2581\u0644\u0628\u0631\u0646\u0627\u0645\u062c": 2580,
  "\u2581\u0628\u062f\u0648\u0631": 2581,
  "\u258154": 2582,
  "\u2581\u0627\u0644\u0645\u0646\u0627\u0633\u0628\u0629": 2583,
  "\u2581\u0648\u0639\u0644\u0627\u0648\u0629": 2584,
  "\u2581\u0627\u0644\u0634\u0628\u0627\u0628": 2585,
  "\u2581\u0627\u0644\u0646\u0647\u062c": 2586,
  "\u2581\u0648\u062b\u064a\u0642\u0629": 2587,
  "\u2581\u0643\u0648\u0631\u064a\u0627": 2588,
  "\u2581\u0627\u0644\u0627\u0644\u062a\u0632\u0627\u0645": 2589,
  "\u2581s\u00e9ances": 2590,
  "\u2581\u0627\u0644\u0643\u0648\u0627\u0631\u062b": 2591,
  "\u0628\u0644": 2592,
  "\u2581Cor\u00e9e": 2593,
  "\u2581durant": 2594,
  "\u2581culturels": 2595,
  "\u2581pr\u00e9sence": 2596,
  "\u258138": 2597,
  "\u2581menace": 2598,
  "avais": 2599,
  "\u2581\u0627\u0644\u0645\u0646\u0627\u0642\u0634\u0629": 2600,
  "\u2581\u0648\u0627\u0644\u0627\u062a\u0635\u0627\u0644\u0627\u062a": 2601,
  "\u2581\u0642\u064a\u0627\u0645": 2602,
  "\u2581\u0625\u064a\u062c\u0627\u062f": 2603,
  "\u2581\u062a\u0644\u0627\u062d\u0638": 2604,
  "\u258156": 2605,
  "\u2581encourager": 2606,
  "\u0646\u062a": 2607,
  "\u25812006,": 2608,
  "\u2581solution": 2609,
  "\u2581\u0645\u0628\u0644\u063a": 2610,
  "\u2581pr\u00e9voit": 2611,
  "\u2581\u0644\u0645\u0624\u062a\u0645\u0631": 2612,
  "\u2581\u0628\u0644\u062f": 2613,
  "\u2581\u0638\u0644": 2614,
  "\u258177": 2615,
  "\u2581r\u00e9f\u00e9rence": 2616,
  "\u2581\u062a\u0642\u0631\u0631": 2617,
  "\u2581sanctions": 2618,
  "\u258149": 2619,
  "\u2581\u0648\u0628\u0627\u0644\u0625\u0636\u0627\u0641\u0629": 2620,
  "\u2581toutefois": 2621,
  "\u2581\u0645\u0639\u0627\u064a\u064a\u0631": 2622,
  "\u25812000,": 2623,
  "\u2581tribunal": 2624,
  "\u2581\u0641\u0639\u0644": 2625,
  "\u2581\u062a\u063a\u064a\u0631": 2626,
  "\u201c": 2627,
  "\u2581faite": 2628,
  "\u2581\u062d\u0633\u0646": 2629,
  "\u2581\u0634\u0627\u0645\u0644\u0629": 2630,
  "\u2581sexe": 2631,
  "\u2581\u064a\u0624\u062f\u064a": 2632,
  "\u2581porter": 2633,
  "\u25812003,": 2634,
  "\u2581obligation": 2635,
  "\u2581\u0627\u0644\u0644\u0627\u062a\u064a\u0646\u064a\u0629": 2636,
  "\u2581Cara\u00efbes": 2637,
  "\u2581\u0648\u0627\u0644\u062b\u0642\u0627\u0641\u064a\u0629": 2638,
  "\u2581\u0641\u0627\u0644": 2639,
  "\u2581pr\u00e9sentation": 2640,
  "\u2581\u0627\u0644\u0645\u0646\u0635\u0648\u0635": 2641,
  "()\u060c": 2642,
  "\u2581\u0627\u062d\u062a\u064a\u0627\u062c\u0627\u062a": 2643,
  "assistance": 2644,
  "\u0648\u0631": 2645,
  "\u2581tribunaux": 2646,
  "\u2581consolidation": 2647,
  "\u2581\u0627\u0644\u0641\u0642\u0631\u0627\u062a": 2648,
  "\u2581r\u00e9aliser": 2649,
  "\u2581\u00e9liminer": 2650,
  "\u2581\u0623\u062f\u0627\u0621": 2651,
  "\u2581\u062a\u062a\u062e\u0630": 2652,
  "\u2581conseils": 2653,
  "\u258147": 2654,
  "\u2581avanc\u00e9s": 2655,
  "\u2581\u0627\u0644\u0627\u0646\u062a\u0634\u0627\u0631": 2656,
  "\u2581parvenir": 2657,
  "\u2581\u0648\u0644\u064a\u0633": 2658,
  "\u2581raciale": 2659,
  "\u2581\u0627\u0644\u0642\u0648\u0627\u0639\u062f": 2660,
  "\u2581naturelles": 2661,
  "\u2581climatiques": 2662,
  "H": 2663,
  "\u2581\u0627\u0644\u062a\u062d\u0636\u064a\u0631\u064a\u0629": 2664,
  "\u2581actuelle": 2665,
  "\u2581\u0623\u0633\u062a\u0637\u064a\u0639": 2666,
  "\u258151": 2667,
  "\u2581\u0642\u062f\u0645\u062a": 2668,
  "\u2581\u0627\u0644\u0623\u062f\u0627\u0621": 2669,
  "\u2581connaissances": 2670,
  "\u2581proc\u00e8s": 2671,
  "\u2581ordinaire": 2672,
  "\u2581\u0645\u0631\u0641\u0642": 2673,
  "\u2581lesquels": 2674,
  "\u2581fille": 2675,
  "\u2581\u0648\u0638\u0627\u0626\u0641": 2676,
  "\u2581Ouais": 2677,
  "\u2581\u00e9lev\u00e9": 2678,
  "\u2581\u0644\u0644\u0642\u0627\u0646\u0648\u0646": 2679,
  "r\u00e9solution": 2680,
  "\u2581stabilit\u00e9": 2681,
  "\u0633\u062a": 2682,
  "\u2581\u0642\u0648\u0627\u062a": 2683,
  "\u25812004,": 2684,
  "\u258142": 2685,
  "Rev": 2686,
  "\u258144": 2687,
  "\u2581crit\u00e8res": 2688,
  "\u2581\u0623\u0646\u0646\u064a": 2689,
  "\u2581\u0627\u0644\u0645\u062e\u0635\u0635\u0629": 2690,
  "\u2581\u0627\u0644\u0643\u064a\u0645\u064a\u0627\u0626\u064a\u0629": 2691,
  "\u2581\u0641\u0626\u0629": 2692,
  "\u2581\u00e9nergie": 2693,
  "\u2581\u0648\u0627\u0644\u0630\u064a": 2694,
  "\u2581\u0627\u0644\u0645\u0639\u0627\u0647\u062f\u0627\u062a": 2695,
  "\u2581dispose": 2696,
  "\u2581\u0648\u0646\u062d\u0646": 2697,
  "\u2581puis": 2698,
  "\u2581\u064a\u0637\u0644\u0628": 2699,
  "\u2581\u0627\u0644\u0645\u0634\u0627\u0643\u0644": 2700,
  "\u2581\u0648\u0647\u0630\u0647": 2701,
  "\u2581\u0639\u0627\u0645\u0627": 2702,
  "\u2581\u0645\u0646\u0627\u0642\u0634\u0629": 2703,
  "\u2581extraordinaire": 2704,
  "g": 2705,
  "\u2581\u0627\u0644\u062b\u0627\u0645\u0646\u0629": 2706,
  "\u2581Sur": 2707,
  "\u2581utiliser": 2708,
  "\u2581\u0627\u0644\u0645\u0631\u062d\u0644\u0629": 2709,
  "\u2581position": 2710,
  "\u2581\u0634": 2711,
  "\u2581\u0628\u0627": 2712,
  "\u2581pr\u00e9occupation": 2713,
  "\u2581\u0627\u062d\u062a\u0631\u0627\u0645": 2714,
  "\u2581\u0623\u062b\u0631": 2715,
  "\u2581\u062a\u062a\u0636\u0645\u0646": 2716,
  "\u2581soixante": 2717,
  "\u2581\u0645\u0639\u0627": 2718,
  "\u0663": 2719,
  "\u2581\u0623\u0648\u0644": 2720,
  "O": 2721,
  "\u2581gouvernance": 2722,
  "\u2581\u0641\u0631\u0635\u0629": 2723,
  "\u2581sp\u00e9cifiques": 2724,
  "\u2581\u064a\u0639\u0645\u0644": 2725,
  "\u2581\u0627\u0644\u0642\u0637\u0631\u064a\u0629": 2726,
  "\u2581consid\u00e9r\u00e9e": 2727,
  "\u2581difficile": 2728,
  "\u2581\u0625\u062f\u0631\u0627\u062c": 2729,
  "\u2581terres": 2730,
  "\u2581\u0627\u0644\u062a\u0643\u0646\u0648\u0644\u0648\u062c\u064a\u0627": 2731,
  "eau": 2732,
  "\u2581\u0648\u0644\u0630\u0644\u0643": 2733,
  "\u2581\u0645\u0646\u0647\u0645": 2734,
  "\u2581\u0648\u0625\u0630\u0627": 2735,
  "\u2581\u0646\u0638\u0631": 2736,
  "\u0633\u064a": 2737,
  "\u2581destruction": 2738,
  "\u2581\u0627\u0644\u0646\u0635": 2739,
  "\u2581main": 2740,
  "\u2581\u0648\u062e\u0627\u0635\u0629": 2741,
  "\u2581soci\u00e9t\u00e9s": 2742,
  "\u2581\u0627\u0644\u0628\u0627\u0628": 2743,
  "\u2581\u0645\u0634\u062a\u0631\u0643\u0629": 2744,
  "\u2581mati\u00e8res": 2745,
  "\u2581Quand": 2746,
  "\u2581initiative": 2747,
  "\u2581\u0627\u0644\u0633": 2748,
  "\u25812001,": 2749,
  "\u2581\u0666": 2750,
  "\u2581r\u00e9alis\u00e9s": 2751,
  "\u2581indicateurs": 2752,
  "\u2581charg\u00e9e": 2753,
  "\u2581raisons": 2754,
  "\u0648\u0641": 2755,
  "\u2581\u0627\u0644\u0645\u0642\u062a\u0631\u062d": 2756,
  "ensemble": 2757,
  "\u2581s\u00e9rie": 2758,
  "\u2581\u0627\u0644\u0622\u062b\u0627\u0631": 2759,
  "\u2581\u064a\u0645\u062b\u0644": 2760,
  "\u2581\u0627\u0644\u0631\u0642\u0627\u0628\u0629": 2761,
  "\u2581No": 2762,
  "\u2581tableau": 2763,
  "\u2581\u0627\u0644\u0645\u062f\u064a\u0631": 2764,
  "\u2581criminalit\u00e9": 2765,
  "toi": 2766,
  "\u2581\u0628\u062d\u0642": 2767,
  "\u2581accro\u00eetre": 2768,
  "\u2581faudrait": 2769,
  "\u2581garanties": 2770,
  "\u2581\u0648\u0628\u0627\u0644": 2771,
  "\u2581\u0627\u0644\u0633\u0644\u0645": 2772,
  "\u2581\u0628\u0643\u0644": 2773,
  "\u2581r\u00e9cemment": 2774,
  "\u2581chimiques": 2775,
  "\u2581site": 2776,
  "\u258146": 2777,
  "\u2581quatri\u00e8me": 2778,
  "\u258141": 2779,
  "\u2581\u0648\u0633\u0648\u0641": 2780,
  "\u2581\u062a\u0645\u062b\u0644": 2781,
  "\u2581\u062b\u0627\u0646\u064a\u0627": 2782,
  "\u2581\u0627\u0644\u0644\u0647": 2783,
  "\u2581\u0644\u0644\u0639\u0645\u0644": 2784,
  "\u2581m\u00e9dias": 2785,
  "\u2581islamique": 2786,
  "\u2581centre": 2787,
  "\u0631\u0627\u062a": 2788,
  "\u2581\u0627\u0644\u0631\u064a\u0641\u064a\u0629": 2789,
  "\u2581r\u00e9": 2790,
  "\u2581technologie": 2791,
  "\u2581\u0637\u0631\u0641": 2792,
  "\u2581\u0644\u0644\u0623\u0645\u064a\u0646": 2793,
  "\u2581\u0627\u0644\u0645\u0627\u0644": 2794,
  "\u2581\u0644\u0623\u064a": 2795,
  "Orient": 2796,
  "\u2581\u0648\u0648\u0636\u0639": 2797,
  "\u2581commis": 2798,
  "\u2581O": 2799,
  "\u2581Si\u00e8ge": 2800,
  "\u2581\u0627\u0644\u0645\u0639\u0627\u0645\u0644\u0629": 2801,
  "\u2581\u0627\u0644\u0648\u062d\u062f\u0629": 2802,
  "\u2581\u00e9quipe": 2803,
  "\u25812005.": 2804,
  "\u2581importantes": 2805,
  "\u2581terroristes": 2806,
  "\u2581actions": 2807,
  "\u2581parole": 2808,
  "\u2581voix": 2809,
  "\u2581\u064a\u062a\u0636\u0645\u0646": 2810,
  "\u2581\u0627\u0644\u0631\u062c\u0627\u0644": 2811,
  "\u2581d\u00e8s": 2812,
  "\u2581\u0627\u0644\u062a\u062d\u062f\u064a\u0627\u062a": 2813,
  "ici": 2814,
  "\u2581\u0627\u0644\u062c\u0645\u064a\u0639": 2815,
  "\u2581\u0627\u0644\u0645\u064a\u062f\u0627\u0646": 2816,
  "\u2581\u0633\u064a\u062f\u064a": 2817,
  "\u2581\u0645\u0631\u062d\u0644\u0629": 2818,
  "\u2581\u0627\u0644\u062a\u0648\u0635\u064a\u0629": 2819,
  "\u2581\u0627\u0644\u0628\u0639\u062b\u0627\u062a": 2820,
  "\u2581Apr\u00e8s": 2821,
  "\u2581clairement": 2822,
  "\u25811-": 2823,
  "de": 2824,
  "prolif\u00e9ration": 2825,
  "\u2581\u0627\u0644\u0633\u0627\u0645\u064a\u0629": 2826,
  "\u2581prie": 2827,
  "\u2581K": 2828,
  "\u2581\u0643\u0628\u064a\u0631\u0627": 2829,
  "\u2581\u0628\u062a\u0646\u0641\u064a\u0630": 2830,
  "\u25811993": 2831,
  "\u2581\u0623\u0633\u0627\u0633\u064a\u0629": 2832,
  "\u2581\u0644\u062f\u064a\u0647\u0627": 2833,
  "ex\u00e9cution": 2834,
  "\u258143": 2835,
  "\u2581\u0627\u0644\u0627\u0633\u062a\u062b\u0646\u0627\u0626\u064a\u0629": 2836,
  "\u2581\u0627\u0644\u0627\u062e\u062a\u064a\u0627\u0631\u064a": 2837,
  "\u2581\u0642\u062f\u0631": 2838,
  "\u2581am\u00e9lioration": 2839,
  "\u2581pri\u00e9": 2840,
  "aime": 2841,
  "\u2581cons\u00e9quence": 2842,
  "\u2581\u0648\u0647\u0646\u0627\u0643": 2843,
  "\u2581\u062f\u064a": 2844,
  "\u2581retour": 2845,
  "\u2581organis\u00e9e": 2846,
  "\u2581\u0644\u0644\u0645\u0633\u0627\u0639\u062f\u0629": 2847,
  "\u2581\u062a\u0646\u0635": 2848,
  "\u2581\u0628\u0646\u0633\u0628\u0629": 2849,
  "\u2581d\u00e9bats": 2850,
  "\u2581\u0645\u0633\u0624\u0648\u0644\u064a\u0629": 2851,
  "\u2581\u0623\u064a\u0647\u0627": 2852,
  "\u2581\u0627\u0644\u062a\u0627\u0633\u0639\u0629": 2853,
  "\u2581\u0627\u0644\u0627\u0647\u062a\u0645\u0627\u0645": 2854,
  "\u258153": 2855,
  "\u2581favoriser": 2856,
  "\u2581familles": 2857,
  "\u2581\u064a\u0644\u0632\u0645": 2858,
  "\u2581\u062c\u0644\u0633\u0629": 2859,
  "\u2581\u0627\u0644\u0642\u0636\u064a\u0629": 2860,
  "\u2581\u0643\u0627\u0641\u0629": 2861,
  "\u2581\u0627\u0644\u0634\u0631\u0643\u0627\u062a": 2862,
  "\u2581\u0633\u064a\u0627\u0633\u0629": 2863,
  "\u2581\u0628\u0627\u0644\u062d\u0642\u0648\u0642": 2864,
  "\u25812007,": 2865,
  "\u2581\u0648\u0627\u0644\u062e\u062f\u0645\u0627\u062a": 2866,
  "\u2581Japon": 2867,
  "\u2581\u0627\u0644\u0635\u0627\u062f\u0631": 2868,
  "\u2581\u0627\u0644\u0635\u064a\u0646": 2869,
  "\u2581\u0627\u0644\u0645\u0627\u0636\u064a\u0629": 2870,
  "\u2581\u062e\u0637\u0637": 2871,
  "\u2581affaire": 2872,
  "\u2581textes": 2873,
  "\u2581\u062a\u0628\u0627\u062f\u0644": 2874,
  "\u2581r\u00e9seau": 2875,
  "\u2581\u062a\u0648\u0627\u0635\u0644": 2876,
  "7": 2877,
  "\u0627\u0628": 2878,
  "\u2581\u0627\u0644\u062a\u0642\u0644\u064a\u062f\u064a\u0629": 2879,
  "\u0627\u0647": 2880,
  "\u2581alimentaire": 2881,
  "\u2581\u0644\u0625\u062f\u0627\u0631\u0629": 2882,
  "\u2581\u0628\u062d\u064a\u062b": 2883,
  "\u2581Canada": 2884,
  "\u2581\u0648\u0627\u0644\u0645\u0624\u0633\u0633\u0627\u062a": 2885,
  "\u2581\u062d\u062f\u0648\u062f": 2886,
  "ne": 2887,
  "\u2581voudrais": 2888,
  "\u25812-": 2889,
  "\u2581\u0623\u0633\u0627\u0633\u0627": 2890,
  "\u2581\u0648\u062a\u0645": 2891,
  "\u2581\u0627\u0644\u0633\u0646\u0648\u064a\u0629": 2892,
  "\u2581\u0628\u062a\u0642\u062f\u064a\u0645": 2893,
  "\u2581ville": 2894,
  "\u2581\u0627\u0644\u0648\u0633\u0637\u0649": 2895,
  "\u2581\u0627\u0644\u0637\u0631\u064a\u0642": 2896,
  "\u2581\u0627\u0644\u0633\u0627\u0628\u0639\u0629": 2897,
  "\u2581300": 2898,
  "\u2581\u0628\u0623\u064a": 2899,
  "\u2581\u0634\u0631\u0643\u0629": 2900,
  "\u2581catastrophes": 2901,
  "\u2581\u0648\u0639\u0646": 2902,
  "\u2581Soudan": 2903,
  "\u2581sexuelle": 2904,
  "\u2581\u0627\u0644\u0634\u0639\u0628\u064a\u0629": 2905,
  "\u2581\u0623\u0641\u063a\u0627\u0646\u0633\u062a\u0627\u0646": 2906,
  "\u2581enqu\u00eates": 2907,
  "\u2581\u0627\u0644\u0623\u0648\u0646\u0643\u062a\u0627\u062f": 2908,
  "\u2581Etats": 2909,
  "\u2581fourni": 2910,
  "\u2581\u0627\u0644\u0634\u0631\u0642\u064a\u0629": 2911,
  "\u0646\u0629": 2912,
  "\u2581\u064a\u0645\u0643\u0646\u0646\u064a": 2913,
  "\u2581HCR": 2914,
  "acc\u00e8s": 2915,
  "\u2581\u0627\u0644\u0634\u0631\u0642": 2916,
  "\u2581\u0628\u0627\u0644\u0625\u0636\u0627\u0641\u0629": 2917,
  "\u2581Elles": 2918,
  "\u2581\u0627\u0644\u062a\u0635\u0648\u064a\u062a": 2919,
  "\u2581\u0648\u0628\u0627\u0644\u062a\u0627\u0644\u064a": 2920,
  "\u2581mines": 2921,
  "\u2581\u0627\u0644\u0645\u0628\u0644\u063a": 2922,
  "\u2581pauvres": 2923,
  "\u2581produit": 2924,
  "\u0642\u062f": 2925,
  "\u2581\u0627\u0644\u0633\u064a\u0627\u0642": 2926,
  "\u2581\u0645\u062a": 2927,
  "\u2581\u0627\u0644\u0639\u0642\u062f": 2928,
  "\u2581\u0627\u0644\u0645\u062c\u062a\u0645\u0639\u0627\u062a": 2929,
  "\u258152": 2930,
  "\u2581\u0644\u0644\u0628\u064a\u0626\u0629": 2931,
  "\u2581\u0648\u0627\u0644\u0628\u0644\u062f\u0627\u0646": 2932,
  "\u2581principales": 2933,
  "\u2581\u0642\u0628\u064a\u0644": 2934,
  "-1": 2935,
  "\u2581\u0627\u0644\u0625\u0646\u062a\u0631\u0646\u062a": 2936,
  "\u2581vois": 2937,
  "\u2581\u0643\u0627\u0645\u0644": 2938,
  "\u2581local": 2939,
  "\u2581\u0627\u0644\u0628\u062d\u062b": 2940,
  "\u0648\u0644": 2941,
  "\u2581\u0634\u0623\u0646": 2942,
  "\u2581corruption": 2943,
  "\u2581\u0627\u0644\u0645\u0642\u0628\u0644\u0629": 2944,
  "\u2581\u0634\u0639\u0628\u0629": 2945,
  "\u2581incidences": 2946,
  "\u2581\u0627\u0644\u0625\u0639\u0627\u0642\u0629": 2947,
  "\u25816.": 2948,
  "\u2581\u0627\u0644\u0627\u0636\u0637\u0644\u0627\u0639": 2949,
  "\u2581investissements": 2950,
  "\u2581\u0644\u0635\u0627\u0644\u062d": 2951,
  "\u2581\u0627\u0644\u062f\u0631\u0627\u0633\u0629": 2952,
  "\u2581comp\u00e9tence": 2953,
  "\u2581\u0627\u0644\u0642\u0637\u0631\u064a": 2954,
  "\u2581\u0643\u0627\u0641\u064a\u0629": 2955,
  "\u2581exploitation": 2956,
  "\u2581Enfin": 2957,
  "\u2581\u0623\u0646\u0646\u0627": 2958,
  "\u2581v\u00e9rification": 2959,
  "3": 2960,
  "\u2581\u0627\u0644\u0635\u0631\u0627\u0639": 2961,
  "\u0624": 2962,
  "\u2581partenariats": 2963,
  "\u2581\u0639\u0646\u0627\u0635\u0631": 2964,
  "\u2581\u0627\u0644\u0645\u0646\u0634\u0623\u0629": 2965,
  "\u2581facultatif": 2966,
  "\u2581\u0627\u0644\u0643\u0627\u0631\u064a\u0628\u064a": 2967,
  "utilisation": 2968,
  "\u2581migrants": 2969,
  "pos": 2970,
  "\u2581globale": 2971,
  "\u2581dette": 2972,
  "\u2581\u00e9valuer": 2973,
  "\u2581\u0627\u0644\u0645\u062a\u062e\u0630\u0629": 2974,
  "\u2581\u0634\u0626": 2975,
  "\u25812005\u060c": 2976,
  "\u2581\u0627\u0644\u0628\u064a\u0627\u0646": 2977,
  "\u2581id\u00e9e": 2978,
  "\u2581\u0644\u0645\u062c\u0644\u0633": 2979,
  "\u2581vingt": 2980,
  "\u2581plut\u00f4t": 2981,
  "\u2581\u0623\u062f\u0646\u0627\u0647": 2982,
  "\u2581d\u00e9finition": 2983,
  "\u2581\u0648\u062c\u0645\u0647\u0648\u0631\u064a\u0629": 2984,
  "\u2581\u062d\u062f\u0648\u062b": 2985,
  "\u2581\u0627\u0644\u0627\u0646\u062a\u062e\u0627\u0628\u0627\u062a": 2986,
  "\u2581\u0628\u062a": 2987,
  "\u2581Forum": 2988,
  "\u2581\u0648\u0623\u0636\u0627\u0641": 2989,
  "\u2581\u0627\u0644\u0645\u0630\u0643\u0648\u0631\u0629": 2990,
  "\u2581\u062c\u0645\u0639": 2991,
  "\u2581\u0627\u064a": 2992,
  "\u2581pl\u00e9ni\u00e8re": 2993,
  "\u2581concern\u00e9s": 2994,
  "\u2581\u0636\u062d\u0627\u064a\u0627": 2995,
  "\u064a\u0644": 2996,
  "\u2581acteurs": 2997,
  "\u25812008,": 2998,
  "\u2581instrument": 2999,
  "\u2581conna\u00eetre": 3000,
  "\u2581\u0648\u0632\u064a\u0627\u062f\u0629": 3001,
  "\u2581comprendre": 3002,
  "aux": 3003,
  "\u2581\u0627\u0644\u0642\u0627\u0626\u0645": 3004,
  "\u2581professionnelle": 3005,
  "\u2581\u0627\u0644\u0645\u0634\u0627\u0631": 3006,
  "\u2581choix": 3007,
  "\u2581meilleure": 3008,
  "\u2581\u062f": 3009,
  "\u2581\u0645\u0633\u062a\u0648\u064a\u0627\u062a": 3010,
  "\u2581\u0644\u062a\u062d\u0633\u064a\u0646": 3011,
  "\u2581pouvait": 3012,
  "\u2581\u0628\u062c\u0645\u064a\u0639": 3013,
  "\u2581recettes": 3014,
  "\u2581autant": 3015,
  "\u2581\u0627\u0644\u0639\u0636\u0648\u064a\u0629": 3016,
  "\u2581\u0644\u0644\u062a\u0639\u0627\u0648\u0646": 3017,
  "\u2581Accord": 3018,
  "\u2581tes": 3019,
  "\u2581liens": 3020,
  "\u0644\u0629": 3021,
  "\u0628\u0629": 3022,
  "\u2581\u0627\u0644\u0645\u0641\u0627\u0648\u0636\u0627\u062a": 3023,
  "\u2581\u0627\u0644\u062d\u0642\u064a\u0642\u0629": 3024,
  "\u2581re": 3025,
  "\u2581\u0642\u0644\u062a": 3026,
  ".7": 3027,
  "\u2581faible": 3028,
  "\u2581\u0627\u0644\u0645\u0635\u0644\u062d\u0629": 3029,
  "\u2581\u0643\u0648\u0633\u0648\u0641\u0648": 3030,
  "\u2581juge": 3031,
  "\u2581\u0648\u0623\u0646\u0627": 3032,
  "\u2581handicap\u00e9es": 3033,
  "\u2581\u00e9trangers": 3034,
  "\u2581\u062c\u0645\u0644\u0629": 3035,
  "\u2581\u0627\u0644\u0645\u062a": 3036,
  "\u2581\u062a\u0639\u064a\u064a\u0646": 3037,
  "or": 3038,
  "\u2581\u0627\u0644\u062a\u0635\u062f\u064a": 3039,
  "\u2581semble": 3040,
  "\u2581trouve": 3041,
  "\u2581responsable": 3042,
  "\u2581constituent": 3043,
  "\u2581trouv\u00e9": 3044,
  "\u2581modalit\u00e9s": 3045,
  "\u2581grands": 3046,
  "\u2581devons": 3047,
  "\u2581\u0627\u0644\u0628": 3048,
  "\u258180": 3049,
  "\u2581\u0638\u0631\u0648\u0641": 3050,
  "\u2581\u062c\u0632\u0621\u0627": 3051,
  "\u2581parents": 3052,
  "\u2581solutions": 3053,
  "\u2581proc\u00e9der": 3054,
  "\u2581absence": 3055,
  "\u2581puissent": 3056,
  "\u2581final": 3057,
  "\u2581\u0667": 3058,
  "\u2581\u0627\u0644\u064a\u0648\u0646\u064a\u0633\u064a\u0641": 3059,
  "\u2581minorit\u00e9s": 3060,
  "armes": 3061,
  "\u2581illicite": 3062,
  "\u2581\u0627\u0644\u0646\u0637\u0627\u0642": 3063,
  "\u2581\u0627\u0633\u062a\u0646\u0627\u062f\u0627": 3064,
  "\u2581\u0627\u0644\u062e\u062a\u0627\u0645\u064a\u0629": 3065,
  "\u2581tient": 3066,
  "\u2581facteurs": 3067,
  "\u258170": 3068,
  "\u2581\u0645\u062c\u0631\u062f": 3069,
  "\u2581consensus": 3070,
  "emploi": 3071,
  "it": 3072,
  "\u2581chacun": 3073,
  "\u2581\u0628\u0648\u062c\u0647": 3074,
  "\u2581\u0627\u0644\u0627\u0633\u062a\u0642\u0631\u0627\u0631": 3075,
  "\u2581\u062a\u062f\u0631\u064a\u0628": 3076,
  "\u2581utile": 3077,
  "\u2581port\u00e9e": 3078,
  "\u2581\u0627\u0644\u0634\u0645\u0627\u0644\u064a\u0629": 3079,
  "\u2581arabes": 3080,
  "\u2581\u0625\u0630\u0646": 3081,
  "\u2581\u062a\u0639\u0644\u0645": 3082,
  "\u2581\u0627\u0644\u0646\u0641\u0642\u0627\u062a": 3083,
  "\u2581\u0633\u062a\u0643\u0648\u0646": 3084,
  "\u2581\u062d\u0631\u064a\u0629": 3085,
  "\u2581\u0639\u062f\u064a\u062f\u0629": 3086,
  "\u2581\u00e9viter": 3087,
  "\u2581juges": 3088,
  "k": 3089,
  "\u2581\u0645\u0648\u0642\u0639": 3090,
  "\u2581changement": 3091,
  "\u2581d\u00e9lai": 3092,
  "\u2581\u00e9chelle": 3093,
  "\u2581plein": 3094,
  "\u2581\u062a\u0642\u0631\u064a\u0628\u0627": 3095,
  "\u2581\u0645\u0628\u062f\u0623": 3096,
  "\u2581\u062c\u0645\u064a\u0639\u0627": 3097,
  "\u2581transparence": 3098,
  "\u2581principal": 3099,
  "\u0627\u062f": 3100,
  "\u2581\u0641\u0641\u064a": 3101,
  "\u2581\u0627\u0644\u0623\u062c\u0627\u0646\u0628": 3102,
  "\u2581partenariat": 3103,
  "\u2581\u0627\u0644\u0628\u0627\u0644\u063a": 3104,
  "\u0645\u062a": 3105,
  "\u2581\u0628\u0630\u0644": 3106,
  "\u2581\u0627\u0644\u0642\u0631\u0646": 3107,
  "\u2581\u062a\u0643\u0641\u0644": 3108,
  "\u2581\u0631\u063a\u0645": 3109,
  "\u2581travailler": 3110,
  "ex": 3111,
  "\u258162": 3112,
  "\u258157": 3113,
  "\u2581cr\u00e9dit": 3114,
  "\u2581suivant": 3115,
  "\u2581\u0661\u0669\u0669\u0664": 3116,
  "\u2581\u0627\u0644\u062f\u0633\u062a\u0648\u0631": 3117,
  "\u2581nuit": 3118,
  "\u2581tenant": 3119,
  "\u2581phase": 3120,
  "\u2581ONG": 3121,
  "\u2581inform\u00e9": 3122,
  "\u2581\u00e9volution": 3123,
  "\u2581LA": 3124,
  "\u2581surtout": 3125,
  "\u2581\u0639\u0645\u0627": 3126,
  "\u2581\u0627\u0644\u0628\u062d\u0627\u0631": 3127,
  "\u2581sp\u00e9cialis\u00e9es": 3128,
  "\u2581\u0648\u0627\u0644\u0627\u0642\u062a\u0635\u0627\u062f\u064a\u0629": 3129,
  "\u2581donn\u00e9e": 3130,
  "\u2581\u0627\u0644\u0645\u062d\u0627\u0643\u0645": 3131,
  "\u2581\u0627\u0644\u0623\u0645\u0648\u0631": 3132,
  "\u2581\u0628\u0631\u0648\u062a\u0648\u0643\u0648\u0644": 3133,
  "\u2581\u0642\u062a\u0644": 3134,
  "\u2581\u0627\u0644\u062c\u0646\u0648\u0628": 3135,
  "\u2581Projet": 3136,
  "\u2581sait": 3137,
  "\u2581\u0644\u0623\u0646\u0647": 3138,
  "\u2581\u0648\u062a\u0648\u0641\u064a\u0631": 3139,
  "\u062f\u064a\u0646": 3140,
  "\u2581\u0627\u0644\u0645\u064a\u062f\u0627\u0646\u064a\u0629": 3141,
  "\u2581\u0627\u0644\u0633\u0644\u0639": 3142,
  "\u258190": 3143,
  "\u2581\u062a\u0648\u062c\u064a\u0647": 3144,
  "\u2581\u0628\u0627\u0633\u062a\u062e\u062f\u0627\u0645": 3145,
  "\u2581\u0643\u062b\u064a\u0631": 3146,
  "\u2581Bosnie": 3147,
  "\u2581\u0628\u0627\u0644\u0645\u0631\u0623\u0629": 3148,
  "\u2581\u0648\u062a\u062d\u0633\u064a\u0646": 3149,
  "\u2581\u0648\u0627\u0644\u0633\u062a\u064a\u0646": 3150,
  "\u2581organe": 3151,
  "\u2581citoyens": 3152,
  "ing": 3153,
  "\u2581particuli\u00e8re": 3154,
  "\u2581tirer": 3155,
  "\u2581\u0642\u0631\u0631\u062a": 3156,
  "\u00e9laboration": 3157,
  "\u2581\u0645\u062c\u062f\u062f\u0627": 3158,
  "\u2581envisager": 3159,
  "\u2581France": 3160,
  "\u2581\u0627\u0644\u0633\u0646\u0648\u064a": 3161,
  "\u2581\u0642\u0627\u0626\u0644\u0627": 3162,
  "\u2581\u0637\u0644\u0628\u062a": 3163,
  "\u0664": 3164,
  "\u2581\u0627\u0644\u062a\u062e\u0637\u064a\u0637": 3165,
  "\u2581\u0627\u0644\u0644\u062c\u0648\u0621": 3166,
  "\u2581\u0627\u0644\u0639\u0627\u0645\u0644\u064a\u0646": 3167,
  "\u2581\u0627\u0644\u062f\u0631\u0627\u0633\u064a\u0629": 3168,
  "\u2581publi\u00e9": 3169,
  "\u2581\u062d\u0633\u0627\u0628": 3170,
  "\u2581\u0647\u0627": 3171,
  "importance": 3172,
  "\u0638": 3173,
  "\u0627\u0626\u064a": 3174,
  "\u2581\u0645\u062f\u064a\u0631": 3175,
  "\u2581ET": 3176,
  "\u2581revenu": 3177,
  "\u2581FNUAP": 3178,
  "\u2581\u062d\u0638\u0631": 3179,
  "\u2581\u062a\u062d\u0644\u064a\u0644": 3180,
  "\u2581\u0627\u0644\u063a\u0631\u0636": 3181,
  "\u2581\u0627\u0639\u062a\u0645\u062f\u062a": 3182,
  "\u2581\u0627\u0644\u0627\u062a\u062d\u0627\u062f\u064a\u0629": 3183,
  "\u2581\u0627\u0644\u0623\u0648\u0633\u0637": 3184,
  "\u2581soir": 3185,
  "\u2581\u0647\u0627\u0645\u0629": 3186,
  "\u2581\u0627\u0644\u0645\u0634\u0648\u0631\u0629": 3187,
  "\u2581\u0633\u0648\u0649": 3188,
  "\u2581origine": 3189,
  "\u2581construction": 3190,
  "\u2581\u0627\u0633\u062a\u0639\u0645\u0627\u0644": 3191,
  "\u2581mises": 3192,
  "\u2581\u0627\u0644\u0634": 3193,
  "\u2581Office": 3194,
  "\u2581\u0627\u0644\u063a\u0631\u0628\u064a\u0629": 3195,
  "\u2581\u062a\u0648\u0633\u064a\u0639": 3196,
  "\u2581\u0627\u0644\u0631\u0635\u062f": 3197,
  "\u2581permet": 3198,
  "\u2581\u0648\u0632\u064a\u0631": 3199,
  "\u2581(1": 3200,
  "\u2581\u0635\u0644\u0629": 3201,
  "\u2581\u062a\u0631\u062d\u0628": 3202,
  "\u2581\u0627\u0644\u0645\u0643\u0627\u0646": 3203,
  "\u2581\u0628\u0648\u0635\u0641\u0647": 3204,
  "\u2581\u0627\u0644\u0641\u0644\u0633\u0637\u064a\u0646\u064a": 3205,
  "\u2581diffusion": 3206,
  "\u2581\u0648\u0623\u0639\u0631\u0628": 3207,
  "\u2581annuel": 3208,
  "\u2581\u062a\u0624\u062f\u064a": 3209,
  "\u2581\u0627\u0644\u0645\u062e\u0627\u0637\u0631": 3210,
  "\u2581\u0627\u0644\u0648\u062d\u064a\u062f": 3211,
  "\u2581\u0644\u0644\u0645\u062c\u0644\u0633": 3212,
  "\u2581\u0627\u0644\u0636\u0631\u0648\u0631\u064a": 3213,
  "\u2581contrat": 3214,
  "\u2581\u0645\u0642\u0631": 3215,
  "\u2581\u0627\u0644\u0645\u0643\u0627\u062a\u0628": 3216,
  "\u2581\u0627\u0644\u0646\u0627\u0631": 3217,
  "\u2581\u062a\u062f\u0639\u0648": 3218,
  "\u2581\u0627\u0644\u0622\u062e\u0631\u064a\u0646": 3219,
  "\u2581Demande": 3220,
  "assurer": 3221,
  "\u25812006\u060c": 3222,
  "\u2581commune": 3223,
  "\u062f\u0627": 3224,
  "\u2581genre": 3225,
  "\u2581\u0648\u0627\u0633\u0639": 3226,
  "\u2581populaire": 3227,
  "\u2581\u0627\u0644\u062f\u062e\u0644": 3228,
  "\u2581\u0627\u0644\u0639\u0644\u0627\u0642\u0627\u062a": 3229,
  "\u2581\u0645\u064a\u062f\u0627\u0646": 3230,
  "R": 3231,
  "\u2581sup\u00e9rieur": 3232,
  "\u2581formul\u00e9es": 3233,
  "\u2581\u0645\u0639\u064a": 3234,
  "\u2581\u0648\u0627\u0644\u0623\u0637\u0641\u0627\u0644": 3235,
  "\u2581\u0627\u0644\u062e": 3236,
  "\u2581\u062a\u0636\u0639": 3237,
  "\u2581vient": 3238,
  "\u2581quel": 3239,
  "\u2581Compte": 3240,
  "\u2581vuln\u00e9rables": 3241,
  "\u2581\u0623\u0639\u0644\u0649": 3242,
  "\u2581\u0627\u0644\u0645\u0633\u0624\u0648\u0644\u064a\u0646": 3243,
  "\u2581latine": 3244,
  "\u2581\u0627\u0644\u0630\u0627\u062a\u064a": 3245,
  "\u2581\u0627\u0644\u0645\u062f\u0627\u0631\u0633": 3246,
  "\u2581\u064a\u0634\u064a\u0631": 3247,
  "\u00e9gard": 3248,
  "\u2581\u0628\u062f\u0623\u062a": 3249,
  "\u2581affectation": 3250,
  "\u2581\u062a\u063a\u064a\u064a\u0631": 3251,
  "\u064a\u062f": 3252,
  "\u25812006.": 3253,
  "\u2581aient": 3254,
  "\u2581\u0627\u0644\u0623\u0645": 3255,
  "\u2581\u0627\u0644\u0645\u062a\u0648\u0642\u0639": 3256,
  "\u2581\u0627\u0644\u0633\u0628\u0628": 3257,
  "\u2581si\u00e8ge": 3258,
  "\u2581commenc\u00e9": 3259,
  "\u258158": 3260,
  "\u2581\u0627\u0644\u0646\u0638\u0645": 3261,
  "\u2581secours": 3262,
  "\u2581\u0628\u0648\u0636\u0639": 3263,
  "\u2581fils": 3264,
  "\u2581\u062a\u064a\u0633\u064a\u0631": 3265,
  "\u2581\u0639\u0636\u0648": 3266,
  "\u2581Pacifique": 3267,
  "\u2581\u0627\u0644\u0625\u0634\u0627\u0631\u0629": 3268,
  "\u2581\u0623\u062f\u0644\u0649": 3269,
  "\u2581\u0627\u0646\u062a\u0647\u0627\u0643\u0627\u062a": 3270,
  "\u2581intitul\u00e9e": 3271,
  "experts": 3272,
  "\u2581diversit\u00e9": 3273,
  "\u2581Cuba": 3274,
  "\u2581libert\u00e9s": 3275,
  "\u2581fond\u00e9e": 3276,
  "\u2581auxquels": 3277,
  "\u2581\u0642\u062f\u0631\u0627\u062a": 3278,
  "\u2581\u0623\u0639\u0631\u0628": 3279,
  "\u2581\u062a\u0639\u062a\u0628\u0631": 3280,
  "\u2581installations": 3281,
  "\u2581\u0627\u0644\u0627\u0645\u062a\u062b\u0627\u0644": 3282,
  "\u2581\u0635\u0646\u0639": 3283,
  "\u2581pr\u00e9occupations": 3284,
  "\u2581\u062a\u0631\u0649": 3285,
  "\u2581\u0627\u0644\u0648\u0632\u0631\u0627\u0621": 3286,
  "\u2581milieu": 3287,
  "\u2581\u0645\u0631\u0627\u062c\u0639\u0629": 3288,
  "\u2581estim\u00e9": 3289,
  "\u2581majorit\u00e9": 3290,
  "\u2581\u00bb.": 3291,
  "\u2581\u0627\u0648": 3292,
  "\u2581mariage": 3293,
  "\u0648\u0645": 3294,
  "\u2581assez": 3295,
  "\u2581volontaires": 3296,
  "\u2581meilleur": 3297,
  "\u2581\u062f\u0648\u0644\u0627\u0631\u0627": 3298,
  "\u2581\u0642\u062f\u0631\u0647": 3299,
  "\u2581convention": 3300,
  "\u2581ligne": 3301,
  "\u2581Moyen": 3302,
  "\u2581lanc\u00e9": 3303,
  "\u2581\u0639\u062f\u062f\u0627": 3304,
  "\u2581pr\u00e9occup\u00e9": 3305,
  "\u2581\u00e2ge": 3306,
  "\u0623\u0646": 3307,
  "\u2581obstacles": 3308,
  "\u2581\u0639\u0645\u0644\u0647\u0627": 3309,
  "\u0648\u0642": 3310,
  "6": 3311,
  "\u2581\u0661\u0669": 3312,
  "\u2581\u0627\u0644\u0645\u062a\u062e\u0635\u0635\u0629": 3313,
  "\u2581\u0635\u064a\u0627\u063a\u0629": 3314,
  "\u2581Bon": 3315,
  "\u2581\u062a\u0639\u062f\u064a\u0644": 3316,
  "\u2581\u0642\u064a\u0645\u0629": 3317,
  "\u2581allant": 3318,
  "\u2581\u0645\u0645\u062b\u0644\u064a": 3319,
  "\u2581\u0627\u0644\u0623\u063a\u0630\u064a\u0629": 3320,
  "\u2581\u0648\u0627\u0644\u0645\u062c\u062a\u0645\u0639": 3321,
  "5": 3322,
  "\u2581ii": 3323,
  "\u2581IV": 3324,
  "\u2581d\u00e9plac\u00e9es": 3325,
  "\u2581\u0625\u062d\u062f\u0649": 3326,
  "\u2581rester": 3327,
  "\u2581\u0637": 3328,
  "\u25812004\u060c": 3329,
  "\u2581composition": 3330,
  "\u2581\u0642\u0627\u0646\u0648\u0646\u064a\u0629": 3331,
  "adoption": 3332,
  "\u2581adjoint": 3333,
  "\u2581\u062a\u0633\u062a\u0637\u064a\u0639": 3334,
  "\u25817.": 3335,
  "R\u00e9publique": 3336,
  "\u2581conventions": 3337,
  "\u2581\u0644\u0644\u0645\u0627\u062f\u0629": 3338,
  "\u2581\u0645\u0631": 3339,
  "\u2581\u0648\u0627\u0644\u0647\u0631\u0633\u0643": 3340,
  "\u2581vues": 3341,
  "\u2581structure": 3342,
  "\u25812002\u060c": 3343,
  "\u2581\u00e9change": 3344,
  "\u2581types": 3345,
  "\u2581\u0631\u0627\u0626\u0639": 3346,
  "\u2581\u0627\u0644\u0645\u0633\u0627\u0647\u0645\u0629": 3347,
  "\u2581\u0661\u0662": 3348,
  "\u2581\u0627\u0644\u0639\u0644\u0645\u064a\u0629": 3349,
  "\u25812004.": 3350,
  "\u25813-": 3351,
  "\u2581\u0625\u0646\u062a\u0627\u062c": 3352,
  "\u2581\u0623\u0634\u0647\u0631": 3353,
  "\u2581\u0627\u0644\u0645\u0628\u0627\u062f\u0631\u0627\u062a": 3354,
  "\u2581\u062d\u0643\u0648\u0645\u064a\u0629": 3355,
  "\u2581Donc": 3356,
  "SR": 3357,
  "\u2581\u0625\u0635\u062f\u0627\u0631": 3358,
  "\u2581\u0645\u0635\u0627\u062f\u0631": 3359,
  "\u2581d\u00e9mocratie": 3360,
  "\u2581\u0648\u0623\u0634\u0627\u0631": 3361,
  "\u2581Vienne": 3362,
  "\u2581\u0623\u0628\u062f\u0627": 3363,
  "\u2581\u0627\u0644\u0648\u0644\u0627\u064a\u0629": 3364,
  "\u2581\u0648\u0642\u0641": 3365,
  "\u2581t\u00eate": 3366,
  "\u2581cat\u00e9gorie": 3367,
  "\u25812008.": 3368,
  "\u2581continuent": 3369,
  "\u2581\u00e9quitable": 3370,
  "\u2581\u0627\u0644\u0647\u062c\u0631\u0629": 3371,
  "\u2581consultation": 3372,
  "\u2581d\u00e9velopp\u00e9s": 3373,
  "\u2581\u0627\u0644\u0641\u0631\u0639": 3374,
  "\u2581\u0648\u0633\u0627\u0626\u0644": 3375,
  "\u2581d\u00e9velopper": 3376,
  "\u2581\u0627\u0644\u0635\u0643\u0648\u0643": 3377,
  "\u2581]": 3378,
  "\u2581commerciales": 3379,
  "\u2581pr\u00e9sent\u00e9s": 3380,
  "\u2581commissions": 3381,
  "\u0642\u062a": 3382,
  "\u2581sud": 3383,
  "\u2581\u0627\u0644\u0635\u0627\u062f\u0631\u0629": 3384,
  "\u2581effectifs": 3385,
  "\u2581t\u00e2ches": 3386,
  "\u2581for\u00eats": 3387,
  "\u2581\u0634\u0627\u0645\u0644": 3388,
  "\u2581\u0627\u0644\u0645\u062f\u0631\u062c\u0629": 3389,
  "\u25811990": 3390,
  "\u2581\u0623\u0648\u062c\u0647": 3391,
  "\u25812003\u060c": 3392,
  "\u2581relevant": 3393,
  "\u2581\u0622\u0633\u0641": 3394,
  "\u2581DU": 3395,
  "\u2581\u0625\u0636\u0627\u0641\u0629": 3396,
  "\u2581\u0628\u0627\u0644\u0627\u0646\u0643\u0644\u064a\u0632\u064a\u0629": 3397,
  "\u258164": 3398,
  "-2": 3399,
  "\u2581\u00e9changes": 3400,
  "organisation": 3401,
  "\u2581r\u00e9serves": 3402,
  "\u2581\u0627\u0644\u0645\u062d\u062a\u0644\u0629": 3403,
  "\u2581\u0645\u0639\u0643": 3404,
  "\u2581\u0627\u0644\u0625\u0633\u0644\u0627\u0645\u064a\u0629": 3405,
  "\u2581\u0628\u0625": 3406,
  "\u2581conseil": 3407,
  "\u25812007.": 3408,
  "\u2581rurales": 3409,
  "\u0623\u0646\u0627": 3410,
  "\u2581connexes": 3411,
  "\u2581d\u00e9fis": 3412,
  "\u2581espace": 3413,
  "\u2581financer": 3414,
  "\u2581Ainsi": 3415,
  "\u2581alin\u00e9a": 3416,
  "\u2581\u0625\u064a\u0631\u0627\u0646": 3417,
  "\u2014": 3418,
  "\u2581\u0627\u0644\u0639\u0646\u0627\u0635\u0631": 3419,
  "\u2581\u0643\u0627\u0646\u0648\u0627": 3420,
  "\u2581\u0668": 3421,
  "\u2581\u0648\u0627\u0644\u0633\u064a\u0627\u0633\u064a\u0629": 3422,
  "\u2581traiter": 3423,
  "\u25812007\u060c": 3424,
  "argent": 3425,
  "\u2581propri\u00e9t\u00e9": 3426,
  "\u2581\u0644\u062f\u064a\u0647": 3427,
  "\u2581\u0644\u0645\u0639\u0627\u0644\u062c\u0629": 3428,
  "\u2581\u0627\u0644\u062a\u0632\u0627\u0645": 3429,
  "\u25812003.": 3430,
  "\u2581\u0644\u0644\u0623\u0637\u0641\u0627\u0644": 3431,
  "\u2581\u064a\u0646\u0635": 3432,
  "\u2581\u0637\u0648\u064a\u0644\u0629": 3433,
  "\u2581\u0627\u0644\u062d\u0627\u062f\u064a\u0629": 3434,
  "\u2581\u0645\u0647\u0645\u0629": 3435,
  "\u2581\u0644\u0645\u0646\u0638\u0645\u0629": 3436,
  "\u2581\u0648\u0627\u0644\u0645\u0633\u0627\u0639\u062f\u0629": 3437,
  "\u2581cr\u00e9dits": 3438,
  "\u2581\u0631\u0626\u064a\u0633\u064a\u0629": 3439,
  "aider": 3440,
  "\u2581\u0644\u0644\u0637\u0627\u0642\u0629": 3441,
  "\u25812000.": 3442,
  "\u2581\u0623\u0635\u0628\u062d": 3443,
  "\u2581Kowe\u00eft": 3444,
  "\u00e9limination": 3445,
  "\u2581\u0641\u0648\u0642": 3446,
  "\u2581\u0627\u0644\u0645\u062a\u0642\u062f\u0645\u0629": 3447,
  "\u2581auraient": 3448,
  "\u2581logement": 3449,
  "\u2581\u0648\u0643\u0645\u0627": 3450,
  "\u2581dirigeants": 3451,
  "\u2581esprit": 3452,
  "\u2581\u0628\u062f\u0621": 3453,
  "\u2581\u062f\u0627\u0644": 3454,
  "n": 3455,
  "\u2581figure": 3456,
  "\u2581observer": 3457,
  "\u2581fondamentales": 3458,
  "avez": 3459,
  "\u2581\u0627\u0644\u0645\u0647\u0645": 3460,
  "\u258161": 3461,
  "[": 3462,
  "\u2581infractions": 3463,
  "\u2581conclu": 3464,
  "\u2581g\u00e9n\u00e9rales": 3465,
  "-3": 3466,
  "\u2581\u062f\u0641\u0639": 3467,
  "\u2581Tous": 3468,
  "\u2581\u0661\u0669\u0669\u0665": 3469,
  "\u25812008\u060c": 3470,
  "\u2581offre": 3471,
  "N": 3472,
  "\u2581emp\u00eacher": 3473,
  "\u2581\u0648\u062e\u0644\u0627\u0644": 3474,
  "\u2581m\u00eames": 3475,
  "\u2581\u0623\u0645\u0627\u0646\u0629": 3476,
  "enfant": 3477,
  "\u25812002.": 3478,
  "\u2581s\u00fbret\u00e9": 3479,
  "\u2581Son": 3480,
  "\u2581rappelle": 3481,
  "\u2581\u0627\u0644\u0641\u0631\u0635": 3482,
  "\u2581\u0627\u0644\u0645\u0647\u0627\u062c\u0631\u064a\u0646": 3483,
  "\u2581\u0627\u0644\u0631\u0633\u0627\u0644\u0629": 3484,
  "\u2581\u0642\u0627\u0644\u062a": 3485,
  "\u2581charg\u00e9s": 3486,
  "10": 3487,
  "\u2581\u0627\u062a\u0641\u0627\u0642\u0627\u062a": 3488,
  "\u2581\u064a\u0632\u064a\u062f": 3489,
  "\u2581internes": 3490,
  "\u2581\u0648\u062a\u0634\u0645\u0644": 3491,
  "\u2581cons\u00e9quent": 3492,
  "\u2581\u0648\u062d\u0642\u0648\u0642": 3493,
  "\u2581fourniture": 3494,
  "\u2581\u0645\u0648\u0627\u062f": 3495,
  "\u2581Web": 3496,
  "\u2581vis\u00e9es": 3497,
  "\u0648\u0647": 3498,
  "\u0641\u062a": 3499,
  "\u0627\u0633": 3500,
  "\u2581UNICEF": 3501,
  "\u2581Avec": 3502,
  "\u2581\u0648\u0631\u062f": 3503,
  "\u2581\u0648\u0623\u0646\u0647": 3504,
  "\u2581presse": 3505,
  "\u2581terre": 3506,
  "\u2581longtemps": 3507,
  "ie": 3508,
  "\u2581Y": 3509,
  "\u2581\u0641\u0639\u0644\u0627": 3510,
  "\u2581Section": 3511,
  "\u2581activement": 3512,
  "objet": 3513,
  "\u2581\u0645\u0639\u062f\u0644\u0627\u062a": 3514,
  "\u2581400": 3515,
  "\u2581\u0641\u064a\u0631\u0648\u0633": 3516,
  "\u2581circonstances": 3517,
  "\u2581\u0627\u0644\u0645\u0648\u0642\u0639": 3518,
  "\u2581souligne": 3519,
  "Herz\u00e9govine": 3520,
  "\u2581\u0644\u0643\u0641\u0627\u0644\u0629": 3521,
  "\u064a\u0633": 3522,
  "\u2581\u0648\u0627\u0644\u0628\u0631\u0627\u0645\u062c": 3523,
  "\u2581\u0641\u064a\u064a\u0646\u0627": 3524,
  "\u2581efficacement": 3525,
  "\u0639\u0629": 3526,
  "\u2581\u0627\u0644\u0627\u062a\u0635\u0627\u0644\u0627\u062a": 3527,
  "\u2581\u0648\u0627\u0644\u062a\u0643\u0646\u0648\u0644\u0648\u062c\u064a\u0627": 3528,
  "\u2581\u0623\u0635\u0628\u062d\u062a": 3529,
  "\u2581avantages": 3530,
  "\u2581\u0627\u0644\u0645\u062d\u064a\u0637": 3531,
  ".\"": 3532,
  "\u2581Examen": 3533,
  "\u2581\u0648\u0627\u0644\u0645\u064a\u0632\u0627\u0646\u064a\u0629": 3534,
  "\u2581d\u00e9lais": 3535,
  "\u2581\u062c\u0632\u0631": 3536,
  "\u2581\u062a\u0633\u0648\u064a\u0629": 3537,
  "\u2581\u0644\u0648\u0636\u0639": 3538,
  "\u2581train": 3539,
  "\u0648\u0628": 3540,
  "\u00e9s": 3541,
  "\u2581\u0627\u0644\u0645\u0627\u0646\u062d\u0629": 3542,
  "\u2581quarante": 3543,
  "\u2581\u0627\u0644\u062b\u0642\u0629": 3544,
  "\u2581\u0648\u0643\u0627\u0644\u0627\u062a": 3545,
  "\u2581\u0632\u0627\u0644\u062a": 3546,
  "\u2581Kosovo": 3547,
  "\u2581\u0637\u0631\u064a\u0642\u0629": 3548,
  "\u0627\u062d": 3549,
  "\u2581appel\u00e9": 3550,
  "\u25812000\u060c": 3551,
  "\u2581\u0645\u064a\u062b\u0627\u0642": 3552,
  "\u2581vise": 3553,
  "\u2581Mexique": 3554,
  "-4": 3555,
  "\u2581\u0645\u0646\u0627\u0633\u0628\u0629": 3556,
  "\u25812001\u060c": 3557,
  "\u2581oui": 3558,
  "\u0642\u0629": 3559,
  "\u2581r\u00e9partition": 3560,
  "\u2581ensuite": 3561,
  "\u2581\u062c\u0632\u0621": 3562,
  "\u2581global": 3563,
  "\u2581th\u00e8me": 3564,
  "\u0627\u0644\u0645\u0627\u062f\u0629": 3565,
  "\u2581voulais": 3566,
  "\u0669": 3567,
  "\u2581d\u00e9finir": 3568,
  "\u2581avenir": 3569,
  "\u00e9tat": 3570,
  "\u2581\u062a\u0639\u062f": 3571,
  "\u2581Tableau": 3572,
  "\u2581\u0645\u0634\u0627\u0643\u0644": 3573,
  "\u2581\u0661\u0669\u0669\u0666": 3574,
  "\u2581\u062e\u0637": 3575,
  "\u2581\u0647\u062f\u0641": 3576,
  "\u2581\u0639\u0644\u064a\u0647\u0645": 3577,
  "\u2581impact": 3578,
  "\u2581\u0644\u0644\u062a": 3579,
  "\u2581\u0644\u0644\u062f\u0648\u0644\u0629": 3580,
  "\u2581\u0623\u0628\u064a": 3581,
  "\u2581\u0642\u0633\u0645": 3582,
  "\u2581conduite": 3583,
  "\u2581voulez": 3584,
  "\u2581\u0623\u0633\u0644\u062d\u0629": 3585,
  "\u2581Lettre": 3586,
  "\u2581\u062a\u0648\u0635\u064a": 3587,
  "\u2581peur": 3588,
  "\u0645\u0627\u0630\u0627": 3589,
  "\u2581interdiction": 3590,
  "\u2581Sa": 3591,
  "\u2581\u064a\u0639\u062f": 3592,
  "\u2581\u0627\u0644\u0645\u0628\u0627\u0634\u0631": 3593,
  "\u2581essentiellement": 3594,
  "\u2581invit\u00e9": 3595,
  "\u2581Communaut\u00e9": 3596,
  "\u2581op\u00e9rationnelles": 3597,
  "\u2581\u0645\u0648\u062c\u0632": 3598,
  "\u2581\u0627\u0644\u062e\u0635\u0648\u0635": 3599,
  "\u2581\u0648\u0627\u0633\u062a": 3600,
  "\u2581\u0627\u0644\u062a\u0637\u0648\u0631\u0627\u062a": 3601,
  "\u2581petite": 3602,
  "V": 3603,
  "\u2581\u0627\u0644\u062a\u0646\u0638\u064a\u0645\u064a\u0629": 3604,
  "\u2581\u0627\u0644\u0634\u0631\u0627\u0643\u0629": 3605,
  "ir": 3606,
  "\u2581\u0648\u0627\u0644\u062a\u062f\u0631\u064a\u0628": 3607,
  "\u2581d\u00e9chets": 3608,
  "\u064a\u0641": 3609,
  "\u2581\u0627\u0644\u064a\u0627\u0628\u0627\u0646": 3610,
  "\u2581recrutement": 3611,
  "\u2581\u064a\u0628\u0644\u063a": 3612,
  "\u2581source": 3613,
  "\u2581pertes": 3614,
  "\u2581\u0627\u0633\u062a\u0631\u0627\u062a\u064a\u062c\u064a\u0627\u062a": 3615,
  "\u00e9e": 3616,
  "\u2581\u0627\u0644\u0635\u0631\u0627\u0639\u0627\u062a": 3617,
  "\u2581\u00e9l\u00e9ment": 3618,
  "\u2581\u0622\u0631\u0627\u0621": 3619,
  "\u2581Du": 3620,
  "\u2581\u0627\u0644\u062a\u062c\u0627\u0631\u064a": 3621,
  "\u2581\u062a\u0648\u0627\u062c\u0647": 3622,
  "\u0640)": 3623,
  "\u2581\u0627\u0644\u062d\u0643\u0648\u0645\u064a": 3624,
  "\u2581sortir": 3625,
  "\u2581tiers": 3626,
  "\u2581\u0628\u0627\u0644\u062a": 3627,
  "\u2581quelle": 3628,
  "30": 3629,
  "\u2581\u0635": 3630,
  "\u2581\u0627\u0644\u0623\u062d\u062f\u0627\u062b": 3631,
  "\u2581\u0627\u0644\u0642\u0627\u0639\u062f\u0629": 3632,
  "\u2581D\u00e9cide": 3633,
  "\u2581\u00e9missions": 3634,
  "\u2581\u0627\u0644\u0642": 3635,
  "\u2581\u0627\u0644\u0645\u0634\u0627\u0648\u0631\u0627\u062a": 3636,
  "\u2581corps": 3637,
  "\u2581\u062a\u0633\u062a\u062e\u062f\u0645": 3638,
  "rait": 3639,
  "\u2581comprend": 3640,
  "\u2581\u0669": 3641,
  "\u2581entr\u00e9e": 3642,
  "\u2581\u062f\u0648\u0644\u0627\u0631\u0627\u062a": 3643,
  "\u2581fallait": 3644,
  "\u2581\u0661\u0665": 3645,
  "\u2581Ca": 3646,
  "\u2581\u062d\u0631\u0643\u0629": 3647,
  "\u2581\u062b\u0627\u0644\u062b\u0627": 3648,
  "\u2581\u0627\u0644\u0641\u0633\u0627\u062f": 3649,
  "\u2581grave": 3650,
  "\u2581ouvert": 3651,
  "\u2581\u0627\u0647\u062a\u0645\u0627\u0645": 3652,
  "\u0627\u062a\u0641\u0627\u0642\u064a\u0629": 3653,
  "\u25812001.": 3654,
  "\u0639\u062a": 3655,
  "\u2581Afghanistan": 3656,
  "\u2581\u0645\u0631\u0627\u0642\u0628\u0629": 3657,
  "\u2581\u0627\u0644\u0644\u062c\u0627\u0646": 3658,
  "age": 3659,
  "\u2581maintenir": 3660,
  "\u2581c\u00f4t\u00e9": 3661,
  "\u2581compl\u00e8te": 3662,
  "\u2581\u0646\u0627\u0626\u0628": 3663,
  "\u00bb": 3664,
  "\u2581\u062a\u0642\u0631\u064a\u0631\u0647\u0627": 3665,
  "\u2581g\u00e9n\u00e9ralement": 3666,
  "\u2581soutenir": 3667,
  "\u2581\u0661\u0661": 3668,
  "\u2581\u0623\u0646\u0647\u0645": 3669,
  "\u2581\u0641\u0643\u0631\u0629": 3670,
  "\u2581appropri\u00e9es": 3671,
  "\u2581\u0627\u0644\u0645\u0634\u0645\u0648\u0644\u0629": 3672,
  "\u2581\u0633\u0628\u0628": 3673,
  "\u2581continu\u00e9": 3674,
  "\u2581r\u00e9seaux": 3675,
  "\u2581\u0645\u0627\u0644\u064a\u0629": 3676,
  "\u2581souhaite": 3677,
  "neuvi\u00e8me": 3678,
  "\u25811992": 3679,
  "Commissariat": 3680,
  "\u2581\u0641\u0639\u0644\u062a": 3681,
  "\u2581\u0627\u0644\u0632\u0631\u0627\u0639\u064a\u0629": 3682,
  "\u2581\u0627\u0644\u0644\u063a\u0627\u062a": 3683,
  "\u2581Cependant": 3684,
  "\u2581\u062c\u064a\u062f\u0629": 3685,
  "air": 3686,
  "p": 3687,
  "\u2581coop\u00e9rer": 3688,
  "\u2581\u0627\u0644\u0623\u0646": 3689,
  "\u2581coup": 3690,
  "\u2581\u062b\u0645\u0629": 3691,
  "di": 3692,
  "\u2581\u0627\u0644\u062a\u0634\u0631\u064a\u0639\u0627\u062a": 3693,
  "\u2581\u0627\u0644\u062c\u0627\u0631\u064a\u0629": 3694,
  "\u2581\u00e9lectronique": 3695,
  "\u2581\u062a\u0648\u0632\u064a\u0639": 3696,
  "\u062f\u0645": 3697,
  "te": 3698,
  "\u2581\u0632\u0627\u0644": 3699,
  "\u2581agit": 3700,
  "\u2581\u064a\u0645\u0643\u0646\u0646\u0627": 3701,
  "\u2581\u0628\u0648\u0627\u0633\u0637\u0629": 3702,
  ".8": 3703,
  "\u0632\u064a": 3704,
  "\u2581\u0648\u0627\u0644\u0644\u062c\u0646\u0629": 3705,
  "\u2581\u0633\u064a\u0627\u062f\u0629": 3706,
  "\u2581\u0627\u0644\u0634\u0623\u0646": 3707,
  "\u2581\u0628\u062d\u0627\u062c\u0629": 3708,
  "\u2581imm\u00e9diatement": 3709,
  "\u25818.": 3710,
  "\u2581\u0627\u0642\u062a\u0631\u0627\u062d": 3711,
  "\u0647\u0630\u0627": 3712,
  "\u2581prenantes": 3713,
  "\u2581600": 3714,
  "\u2581\u0627\u0644\u0636\u062d\u0627\u064a\u0627": 3715,
  "\u2581particuliers": 3716,
  "\u2581contingents": 3717,
  "\u2581p\u00e9riodique": 3718,
  "\u2581r\u00e9gler": 3719,
  "\u2581pertinents": 3720,
  "\u2581\u0625\u062f\u0645\u0627\u062c": 3721,
  "\u2581\u0648\u0625": 3722,
  "\u2581ministres": 3723,
  "Am\u00e9rique": 3724,
  "\u2581sp\u00e9ciaux": 3725,
  "\u0631\u0641": 3726,
  "\u2581\u0627\u0644\u0645\u0645\u0643\u0646": 3727,
  "\u2581\u062e\u0645\u0633": 3728,
  "\u2581largement": 3729,
  "\u258165": 3730,
  "man": 3731,
  "\u2581savez": 3732,
  "\u2581nationalit\u00e9": 3733,
  "\u2581\u0627\u0644\u0625\u062c\u0645\u0627\u0644\u064a": 3734,
  "\u2581\u0643\u062b\u064a\u0631\u0629": 3735,
  "\u2581\u0627\u0644\u0645\u0633\u062a\u0648\u064a\u0627\u062a": 3736,
  "\u2581tuer": 3737,
  "\u2581\u0645\u064a\u0632\u0627\u0646\u064a\u0629": 3738,
  "\u2581\u0644\u0628\u0646\u0627\u0646": 3739,
  "\u2581pr\u00e9paration": 3740,
  "\u2581\u0627\u0644\u062c\u0645\u0627\u0639\u0629": 3741,
  "\u2581reconnu": 3742,
  "\u2581contact": 3743,
  "\u2581\u0648\u0627\u0644\u0639\u062f\u0627\u0644\u0629": 3744,
  "\u2581derniers": 3745,
  "\u2581applicables": 3746,
  "\u2581\u0627\u0644\u0646\u0632\u0627\u0639": 3747,
  "\u2581semaine": 3748,
  "\u2581\u064a\u0639\u062a\u0628\u0631": 3749,
  "\u25811999,": 3750,
  "\u2581\u064a\u0648\u0645\u0627": 3751,
  "\u2581\u0627\u0644\u0623\u0635\u0644\u064a\u064a\u0646": 3752,
  "\u2581\u0627\u0644\u062f\u0648\u0631": 3753,
  "\u2581\u0627\u0644\u0644\u0627\u0632\u0645": 3754,
  "\u2581chercher": 3755,
  "\u2581\u0623\u0646\u0648\u0627\u0639": 3756,
  "\u2581poursuite": 3757,
  "\u2581\u0627\u0644\u062c\u0646\u0633\u0627\u0646\u064a\u0629": 3758,
  "\u2581\u0623\u064a\u0627\u0645": 3759,
  "\u0625": 3760,
  "\u2581\u0630\u0627\u062a\u0647": 3761,
  "\u2581administratif": 3762,
  "\u2581\u0627\u0644\u0645\u0634\u0643\u0644\u0629": 3763,
  "\u2581\u0645\u0639\u0647": 3764,
  "\u2581\u0633\u064a\u062f": 3765,
  "\u2581trait": 3766,
  "\u2581\u0627\u0644\u0625\u0636\u0627\u0641\u064a\u0629": 3767,
  "\u2581\u0627\u0644\u0627\u0646\u062a\u0647\u0627\u0643\u0627\u062a": 3768,
  "\u2581\u0627\u0644\u0645\u0634\u0631\u0648\u0639\u0629": 3769,
  "\u0668": 3770,
  "\u2581\u0627\u0644\u062f\u0648\u0631\u064a": 3771,
  "\u2581\u0645\u0648\u0639\u062f": 3772,
  "\u2581\u0625\u0642\u0644\u064a\u0645\u064a\u0629": 3773,
  "\u2581\u0627\u0644\u0645\u0639\u0647\u062f": 3774,
  "\u2581Voir": 3775,
  "\u2581\u0627\u0644\u0646\u0647\u0627\u0626\u064a": 3776,
  "\u2581collecte": 3777,
  "\u2581\u0628\u0627\u0644\u0646\u064a\u0627\u0628\u0629": 3778,
  "\u2581\u0627\u0644\u0637\u0628\u064a\u0629": 3779,
  "\u2581\u0628\u062f\u0644\u0627": 3780,
  "\u2581\u0627\u0644\u062d\u0627\u0644": 3781,
  "\u2581\u0627\u0644\u062f\u064a\u0646": 3782,
  "\u2581\u0644\u0643\u0645": 3783,
  "\u2581\u0625\u0637\u0644\u0627\u0642": 3784,
  "\u2581pleine": 3785,
  "\u062f\u0627\u0621": 3786,
  "ch": 3787,
  "\u2581consid\u00e8re": 3788,
  "\u2581\u00e9coles": 3789,
  "\u2581\u0639\u0644\u0645": 3790,
  "huiti\u00e8me": 3791,
  "\u2581\u0628\u0627\u0644\u063a": 3792,
  "\u2581\u0627\u0644\u0625\u0628\u0644\u0627\u063a": 3793,
  "\u2581langues": 3794,
  "20": 3795,
  "\u062a\u0645": 3796,
  "\u2581encourage": 3797,
  "\u2581\u062d\u062f\u0629": 3798,
  "\u2581appartenant": 3799,
  "\u2581vont": 3800,
  "\u2581\u0641\u0647\u0645": 3801,
  "\u2581men\u00e9e": 3802,
  "\u2581humain": 3803,
  "\u2581\u0628\u062f\u0623": 3804,
  "\u2581loin": 3805,
  "\u2581destin\u00e9s": 3806,
  "\u2581repr\u00e9sente": 3807,
  "\u2581Institut": 3808,
  "\u2581\u0644\u0644\u0645\u0648\u0638\u0641\u064a\u0646": 3809,
  "\u2581gars": 3810,
  "\u2581\u0627\u0644\u0645\u0637\u0627\u0644\u0628\u0627\u062a": 3811,
  "\u2581\u0627\u0644\u0627\u0646\u062a\u0642\u0627\u0644\u064a\u0629": 3812,
  "\u2581\u0648\u062f\u0639\u0645": 3813,
  "\u2581servir": 3814,
  "\u2581\u062f\u0648\u0644\u064a": 3815,
  "\u2581\u0625\u0644\u064a": 3816,
  "\u2581\u0645\u0628\u0627\u062f\u0631\u0629": 3817,
  "\u2581\u062d\u064a\u0627\u0629": 3818,
  "\u2581\u062a\u062d\u062a\u0627\u062c": 3819,
  "\u2581\u062c\u0631\u064a\u0645\u0629": 3820,
  "\u2581Liban": 3821,
  "\u2581connaissance": 3822,
  "\u0634\u064a": 3823,
  "\u2581\u0627\u0644\u0635\u0646\u0627\u0639\u064a\u0629": 3824,
  "\u2581\u0627\u0644\u0633\u0644\u0645\u064a\u0629": 3825,
  "\u2581\u0642\u0648\u0627\u0646\u064a\u0646": 3826,
  "\u2581\u0648\u062f\u0648\u0646": 3827,
  "\u2581\u062c\u0647\u0648\u062f\u0647\u0627": 3828,
  "\u2581concurrence": 3829,
  "\u2581\u062a\u0628\u0644\u063a": 3830,
  "\u2581\u0627\u0644\u0631\u0633\u0645\u064a": 3831,
  "\u2581pouvez": 3832,
  "\u2581\u0627\u0644\u062e\u0637\u0648\u0627\u062a": 3833,
  "\u2581\u0627\u0644\u0637\u0631\u064a\u0642\u0629": 3834,
  "\u2581visite": 3835,
  "\u2581\u064a\u062a": 3836,
  "\u2581\u062a\u062d\u064a\u0637": 3837,
  "\u2581pr\u00e9paratoire": 3838,
  "\u2581\u0628\u0646": 3839,
  "K": 3840,
  "\u2581r\u00e9ponses": 3841,
  "\u2581\u0627\u0644\u0646\u0647\u0648\u0636": 3842,
  "\u2581mauvais": 3843,
  "\u2581principalement": 3844,
  "\u2581\u0645\u062a\u0639\u062f\u062f\u0629": 3845,
  "\u2581d\u00e9": 3846,
  "\u2581limit\u00e9e": 3847,
  "\u2581indique": 3848,
  "\u2581\u0648\u0627\u0644\u0623": 3849,
  "\u2581\u0627\u0644\u062e\u0627\u0645\u0633": 3850,
  "\u2581\u0641\u0625\u0646\u0647\u0627": 3851,
  "\u2581Plus": 3852,
  "\u2581\u062e\u0645\u0633\u0629": 3853,
  "\u064a\u062a": 3854,
  "\u2581\u0648\u0642": 3855,
  "\u2581\u0630\u0643\u0631": 3856,
  "\u2581effective": 3857,
  "\u2581\u0627\u0644\u0628\u0648\u0633\u0646\u0629": 3858,
  "\u2581\u0627\u0644\u0645\u0628\u0630\u0648\u0644\u0629": 3859,
  "\u2581lieux": 3860,
  "\u2581Br\u00e9sil": 3861,
  "\u00e9tablissement": 3862,
  "\u2581directeurs": 3863,
  "\u2581\u0643\u0627\u0644": 3864,
  "\u2581\u0623\u0631\u0628\u0639\u0629": 3865,
  "\u2581\u0627\u0644\u0639\u0645\u0627\u0644": 3866,
  "\u2581\u0648\u0645\u0646\u0637\u0642\u0629": 3867,
  "\u2581\u0639\u0628\u0627\u0631\u0629": 3868,
  "\u2581provenant": 3869,
  "\u2581\u0627\u0644\u0645\u0624\u0631\u062e\u0629": 3870,
  "\u2581\u0633\u0643\u0627\u0646": 3871,
  "Est": 3872,
  "\u2581laisser": 3873,
  "\u2581\u062a\u0634\u062c\u0639": 3874,
  "\u2581\u0623\u0645\u0646": 3875,
  "\u2581autorit\u00e9": 3876,
  "\u2581\u0627\u0644\u0646\u0627\u0634\u0626\u0629": 3877,
  "\u2581Pakistan": 3878,
  "\u2581\u0627\u0644\u0623\u0648\u0644\u064a\u0629": 3879,
  "\u2581Force": 3880,
  "\u2581recevoir": 3881,
  "\u2581\u0644\u0644\u0623\u0633\u0644\u062d\u0629": 3882,
  "\u2581\u062a\u0635\u0628\u062d": 3883,
  "\u25812009,": 3884,
  "\u2581\u0628\u0644\u062f\u0627": 3885,
  "\u2581\u0644\u062a\u0644\u0643": 3886,
  "\u2581\u0643\u0646\u062f\u0627": 3887,
  "\u2581entreprise": 3888,
  "\u2581\u064a\u062e\u0635": 3889,
  "\u0667": 3890,
  "\u2581\u062a\u0642\u0631\u064a\u0631\u0647": 3891,
  "\u2581vol": 3892,
  "\u2581\u0645\u062f\u0629": 3893,
  "\u2581demeure": 3894,
  "\u2581\u0648\u0627\u0644\u0625\u0642\u0644\u064a\u0645\u064a\u0629": 3895,
  "\u2581devaient": 3896,
  "\u2581voyage": 3897,
  "\u2581requ\u00e9rant": 3898,
  "\u2581\u0644\u0644\u062d\u0635\u0648\u0644": 3899,
  "\u2581\u062f\u0648\u0644\u064a\u0627": 3900,
  "\u2581d\u00e9ploiement": 3901,
  "\u2581\u0637\u0648\u0627\u0644": 3902,
  "\u2581pr\u00e9sidence": 3903,
  "\u2581\u0625\u0642\u0631\u0627\u0631": 3904,
  "\u2581\u0627\u0644\u0645\u0648\u062c\u0648\u062f\u0629": 3905,
  "\u2581\u0628\u0644\u063a": 3906,
  "\u2581r\u00e9guli\u00e8rement": 3907,
  "\u2581\u0627\u0644\u0645\u062e\u062a\u0644\u0641\u0629": 3908,
  "\u2581drogue": 3909,
  "\u2581\u0661\u0660": 3910,
  "\u25811991": 3911,
  "\u2581\u0627\u0644\u0623\u0642\u0644\u064a\u0627\u062a": 3912,
  "\u2581\u0644\u0644\u0642\u0636\u0627\u0621": 3913,
  "septi\u00e8me": 3914,
  "\u2581science": 3915,
  "\u2581\u0627\u0644\u0645\u0646\u0627\u0642\u0634\u0627\u062a": 3916,
  "\u2581\u0648\u0627\u0644\u062a\u0639\u0644\u064a\u0645": 3917,
  "\u2581\u0634\u0631\u0642": 3918,
  "\u0644\u0642\u062f": 3919,
  "\u2581Pays": 3920,
  "\u2581\u062c\u0631\u0627\u0626\u0645": 3921,
  "\u2581\u0627\u0644\u062a\u0632\u0627\u0645\u0627\u062a": 3922,
  "\u2581\u0627\u0644\u062a\u0634\u0631\u064a\u0639\u064a\u0629": 3923,
  "\u2581\u0627\u0644\u0633\u0641\u0631": 3924,
  "\u2581concern\u00e9es": 3925,
  "is": 3926,
  "\u2581combattre": 3927,
  "\u2581\u0627\u0644\u0623\u062e\u064a\u0631": 3928,
  "\u2581\u0628\u0642\u062f\u0631": 3929,
  "\u2581retard": 3930,
  "\u2581\u0627\u0639\u062a\u0645\u062f": 3931,
  "\u2581\u0627\u0644\u0639\u0648\u062f\u0629": 3932,
  "\u062a\u0627\u0628\u0639": 3933,
  "\u2581\u062c\u0648\u0627\u0646\u0628": 3934,
  "\u2581\u0643\u0648\u0628\u0627": 3935,
  "\u258159": 3936,
  "\u2581ind\u00e9pendant": 3937,
  "\u2581\u062f\u0644\u064a\u0644": 3938,
  "\u2581\u0648\u0627\u0644\u0625": 3939,
  "\u2581\u062a\u0639\u0631\u0636": 3940,
  "\u2581\u0642\u0644\u064a\u0644\u0627": 3941,
  "\u2581biais": 3942,
  "\u2581interm\u00e9diaire": 3943,
  "\u2581\u0628\u0645\u0628\u0644\u063a": 3944,
  "\u2581\u062c\u064a\u062f\u0627": 3945,
  "\u2581\u0627\u0644\u062c\u0648\u0627\u0646\u0628": 3946,
  "\u2581\u062f\u0627\u0626\u0631\u0629": 3947,
  "\u2581hui": 3948,
  "\u2581\u0645\u0641\u0648\u0636\u064a\u0629": 3949,
  "\u2581\u0627\u0644\u062d": 3950,
  "\u2581\u062a\u0639\u0645\u064a\u0645": 3951,
  "\u0627\u0644\u0642\u0631\u0627\u0631": 3952,
  "\u2581indispensable": 3953,
  "\u2581\u0625\u0646\u0641\u0627\u0630": 3954,
  "\u2581d\u00e9tenus": 3955,
  "\u2581nord": 3956,
  "\u2581\u0627\u0644\u062a\u0635\u062f\u064a\u0642": 3957,
  "\u2581cat\u00e9gories": 3958,
  "19": 3959,
  "\u2581\u0627\u0644\u0635\u0648\u0645\u0627\u0644": 3960,
  "\u2581\u0627\u0644\u0645\u0633\u062a\u0642\u0644\u0629": 3961,
  "\u2581\u0628\u0627\u0644\u0637\u0628\u0639": 3962,
  "\u2581physique": 3963,
  "\u2581actuel": 3964,
  "\u2581\u0627\u0644\u062a\u0631\u062a\u064a\u0628\u0627\u062a": 3965,
  "\u2581concr\u00e8tes": 3966,
  "\u2581officieuses": 3967,
  "\u2581\u0627\u0644\u0641\u0631\u0635\u0629": 3968,
  "\u2581convenu": 3969,
  "\u2581ind\u00e9pendance": 3970,
  "\u2581\u0644\u062d\u0641\u0638": 3971,
  "\u2581\u0627\u0644\u062c\u0645\u0627\u0639\u064a\u0629": 3972,
  "\u2581prochaine": 3973,
  "\u2581\u0627\u0644\u0639\u0646\u0635\u0631\u064a\u0629": 3974,
  "\u2581\u0628\u0628\u064a\u0627\u0646": 3975,
  "\u2581\u0627\u0644\u0645\u0644\u0643\u064a\u0629": 3976,
  "\u2581\u0627\u0644\u0623\u0635\u0648\u0644": 3977,
  "\u2581\u0627\u0644\u0627\u062a\u0641\u0627\u0642\u0627\u062a": 3978,
  "\u2581\u00e9nonc\u00e9s": 3979,
  "\u2581consid\u00e9ration": 3980,
  "\u2581\u0627\u0644\u0634\u0627\u0645\u0644\u0629": 3981,
  "U": 3982,
  "\u2581cependant": 3983,
  "\u2581\u0648\u0627\u0644\u0623\u0631\u0628\u0639\u064a\u0646": 3984,
  "\u2581doute": 3985,
  "\u2581commission": 3986,
  "\u2581\u0627\u0644\u0639\u062f\u062f": 3987,
  "\u2581entrepris": 3988,
  "\u2581fournis": 3989,
  "\u2581\u062a\u0648\u0635\u064a\u0629": 3990,
  "\u062f\u0631": 3991,
  "\u2581africains": 3992,
  "\u2581figurent": 3993,
  "11": 3994,
  "\u0665": 3995,
  "\u2581r\u00e9formes": 3996,
  "\u2581\u0627\u0644\u0648\u0639\u064a": 3997,
  "\u2581\u0627\u0644\u0645\u0645\u062a\u0644\u0643\u0627\u062a": 3998,
  "\u25812009.": 3999,
  "\u2581\u0627\u0644\u0648\u0641\u0627\u0621": 4000,
  "\u2581{\\": 4001,
  "\u2581\u0627\u0644\u0647\u0646\u062f": 4002,
  "\u2581\u0644\u0644\u0645\u0624\u062a\u0645\u0631": 4003,
  "\u2581\u062e\u0641\u0636": 4004,
  "\u2581\u0637\u0644\u0628\u0627\u062a": 4005,
  "\u2581accorder": 4006,
  "\u2581\u0627\u0644\u0623\u0633\u0627\u0633": 4007,
  "\u25819.": 4008,
  "\u2581\u00e9tudier": 4009,
  "00": 4010,
  "\u0643\u0631": 4011,
  "\u2581Salut": 4012,
  "\u2581W": 4013,
  "\u2581comp\u00e9tentes": 4014,
  "\u2581\u0627\u0644\u0634\u0631\u0643\u0627\u0621": 4015,
  "\u2581\u0643\u064a\u0641\u064a\u0629": 4016,
  "\u2581feu": 4017,
  "\u2581tendant": 4018,
  "\u2581Peut": 4019,
  "\u2581vente": 4020,
  "\u2581contient": 4021,
  "\u2581racisme": 4022,
  "\u2581\u0627\u0644\u0645\u062c\u0645\u0648\u0639\u0627\u062a": 4023,
  "\u2581\u0643\u0627\u0645\u0644\u0629": 4024,
  "\u2581\u062f\u064a\u0641\u0648\u0627\u0631": 4025,
  "\u2581sang": 4026,
  "\u2581contrats": 4027,
  "\u2581\u0627\u0644\u0645\u0648\u0627\u0641\u0642\u0629": 4028,
  "\u2581PNUE": 4029,
  "\u2581publication": 4030,
  "\u2581\u0623\u0645\u0627\u0643\u0646": 4031,
  "urgence": 4032,
  "\u2581pr\u00e9sent\u00e9es": 4033,
  "\u2581\u0648\u0627\u0644\u0639\u0645\u0644": 4034,
  "\u2581utilis\u00e9s": 4035,
  "\u2581maladies": 4036,
  "cadre": 4037,
  "\u2581Palestine": 4038,
  "\u2581\u0645\u0644\u0627\u064a\u064a\u0646": 4039,
  "\u2581Ou": 4040,
  "\u2581\u0627\u0644\u0645\u0639\u062f\u0627\u062a": 4041,
  "\u2581observateurs": 4042,
  "\u2581\u0627\u0644\u0625\u0633\u0631\u0627\u0626\u064a\u0644\u064a\u0629": 4043,
  "\u2581\u0661\u0669\u0669\u0668": 4044,
  "\u2581occup\u00e9": 4045,
  "\u2581chance": 4046,
  "na": 4047,
  "\u2581\u0627\u0644\u062f\u064a\u0648\u0646": 4048,
  "\u2581\u062d\u0643\u0645": 4049,
  "\u0644\u0648": 4050,
  "\u2581scientifique": 4051,
  "\u2581\u0645\u0642\u062f\u0645": 4052,
  "\u2581travers": 4053,
  "\u2581dix": 4054,
  "\u2581\u0628\u0627\u0644\u0645\u062e\u062f\u0631\u0627\u062a": 4055,
  "\u2581arm\u00e9es": 4056,
  "\u2581\u0627\u0644\u0623\u0633\u0648\u0627\u0642": 4057,
  "\u2581allez": 4058,
  "\u2581libre": 4059,
  "\u2581\u0625\u064a\u0644\u0627\u0621": 4060,
  "\u2581\u0633\u0644\u0637\u0629": 4061,
  "\u2581\u062e\u0628\u0631\u0627\u0621": 4062,
  "\u2581reconnaissance": 4063,
  "60": 4064,
  "\u2581\u0627\u0644\u0645\u0648\u0636\u0648\u0639\u064a\u0629": 4065,
  "\u2581\u0637\u0641\u0644": 4066,
  "\u2581\u0627\u0644\u0625\u062f\u0627\u0631\u064a": 4067,
  "\u2581\u0661\u0663": 4068,
  "ann\u00e9e": 4069,
  "\u2581\u0648\u0644\u0642\u062f": 4070,
  "\u2581\u0628\u0623\u0646\u0647\u0627": 4071,
  "\u2581universelle": 4072,
  "\u2581Re": 4073,
  "intention": 4074,
  "\u2581\u0662\u0661": 4075,
  "\u2581\u0634\u0647\u0631": 4076,
  "\u2581voiture": 4077,
  "\u2581Add": 4078,
  "\u2581instance": 4079,
  "\u2581\u0627\u0644\u0641\u0626\u0627\u062a": 4080,
  "\u2581\u0631\u0624\u0633\u0627\u0621": 4081,
  "\u0646\u0639\u0645": 4082,
  "\u0645\u064a": 4083,
  "\u2581scientifiques": 4084,
  "\u0666": 4085,
  "\u2581\u0639\u0636\u0648\u0627": 4086,
  "annexe": 4087,
  "\u25812014": 4088,
  "\u2581\u0627\u0644\u0631\u0641\u064a\u0639": 4089,
  "\u2581\u0628\u0627\u0644\u0646\u0638\u0631": 4090,
  "\u2581Rwanda": 4091,
  "\u2581\u0628\u0625\u0646\u0634\u0627\u0621": 4092,
  "\u2581\u0634\u0631\u0648\u0637": 4093,
  "\u2581\u0628\u0642\u0631\u0627\u0631": 4094,
  "\u2581\u0646\u0638\u0631\u062a": 4095,
  "\u2581\u0661\u0669\u0669\u0667": 4096,
  "\u2581institutionnel": 4097,
  "us": 4098,
  "\u2581\u0631\u0623\u064a": 4099,
  "\u2581\u0627\u0644\u0623\u0642\u0627\u0644\u064a\u0645": 4100,
  "\u2581\u0627\u0646\u062e\u0641\u0627\u0636": 4101,
  "\u2581\u0645\u0641\u0647\u0648\u0645": 4102,
  "\u2581Somalie": 4103,
  "\u2581\u062f\u0627\u062e\u0644\u064a\u0627": 4104,
  "\u2581int\u00e9gr\u00e9e": 4105,
  "\u2581\u0627\u0644\u0645\u0639\u062a\u0645\u062f\u0629": 4106,
  "\u2581\u0648\u062d\u062a\u0649": 4107,
  "\u2581Inde": 4108,
  "\u2581\u0627\u0644\u062a\u0641\u062a\u064a\u0634": 4109,
  "\u2581Plusieurs": 4110,
  "\u2581Partie": 4111,
  "\u2581invite": 4112,
  "\u2581hors": 4113,
  "\u2581partage": 4114,
  "\u2581lumi\u00e8re": 4115,
  "\u2581humaine": 4116,
  "\u2581\u062d\u062c\u0645": 4117,
  "J": 4118,
  "troisi\u00e8me": 4119,
  "\u2581montre": 4120,
  "\u2581\u0627\u0644\u062a\u0628\u0631\u0639\u0627\u062a": 4121,
  "\u2581pourra": 4122,
  "\u2581\u0628\u064a\u0626\u0629": 4123,
  "\u2581\u0627\u0644\u0642\u0637\u0627\u0639\u0627\u062a": 4124,
  "\u2581\u0627\u0644\u0644\u064a\u0644\u0629": 4125,
  "50": 4126,
  "\u2581\u0623\u062e\u0630": 4127,
  "\u2581\u0627\u0644\u0645\u0637\u0644\u0648\u0628\u0629": 4128,
  "\u2581\u0627\u0644\u0623\u0633\u0631": 4129,
  "\u2581\u0646\u0635\u0641": 4130,
  "\u2581\u0645\u062b\u0644\u0627": 4131,
  "\u2581\u0628\u062e\u0635\u0648\u0635": 4132,
  "\u2581soumettre": 4133,
  "\u2581fronti\u00e8res": 4134,
  "\u2581mettant": 4135,
  "\u2581\u0627\u0644\u0645\u062a\u0641\u0642": 4136,
  "\u2581\u0627\u0644\u062c\u0646\u0633\u0627\u0646\u064a": 4137,
  "\u2581\u0644\u062a\u062d\u062f\u064a\u062f": 4138,
  "\u2581\u0644\u0644\u062c\u0645\u064a\u0639": 4139,
  "\u2581\u062a\u0633\u062c\u064a\u0644": 4140,
  "\u2581\u0627\u0644\u062c\u0648\u064a\u0629": 4141,
  "\u2581\u0627\u0644\u062c\u0645\u0627\u0639\u0627\u062a": 4142,
  "\u062c\u0631": 4143,
  "\u2581\u0627\u0644\u0627\u0639\u062a\u0631\u0627\u0641": 4144,
  "\u2581\u0627\u0644\u0627\u062d\u062a\u062c\u0627\u0632": 4145,
  "\u2581consommation": 4146,
  "\u2581\u062f\u0648\u0631\u0627\u062a": 4147,
  "id": 4148,
  "\u2581\u064a\u0624\u0643\u062f": 4149,
  "\u2581\u0627\u0644\u0647\u064a\u0627\u0643\u0644": 4150,
  "\u0643\u0644": 4151,
  "\u2581\u0627\u0644\u0645\u0628\u0627\u062f\u0631\u0629": 4152,
  "\u2581\u0627\u0644\u0643\u0628\u0631\u0649": 4153,
  "\u2581\u0641\u0639\u0627\u0644": 4154,
  "\u2581\u062a\u0642\u0648\u0644": 4155,
  "\u2581\u0623\u0637\u0641\u0627\u0644": 4156,
  "\u2581\u0644\u0644\u0645\u062d\u0643\u0645\u0629": 4157,
  "\u2581consid\u00e9r\u00e9": 4158,
  "\u2581garde": 4159,
  "\u2581\u0627\u0644\u0632\u0648\u0627\u062c": 4160,
  "\u2581\u062a\u0646\u0627\u0648\u0644": 4161,
  "\u2581\u0627\u0644\u0625\u064a\u0631\u0627\u062f\u0627\u062a": 4162,
  "\u0627\u0637": 4163,
  "\u2581\u0639\u0627\u062f\u0629": 4164,
  "\u2581\u0627\u0644\u0648\u0627\u062c\u0628": 4165,
  "\u2581\u0627\u0644\u0648\u0627\u0636\u062d": 4166,
  "\u2581\u0648\u0627\u0644\u062a\u0645\u064a\u064a\u0632": 4167,
  "\u2581\u0648\u0627\u0644\u062a\u0646\u0633\u064a\u0642": 4168,
  "\u2581Parce": 4169,
  "\u2581climat": 4170,
  "\u2581\u0633\u062a\u0629": 4171,
  "\u2581comit\u00e9": 4172,
  "efficacit\u00e9": 4173,
  "\u258110.": 4174,
  "\u2581sept": 4175,
  "40": 4176,
  "\u2581\u0627\u0646\u062a\u0647\u0627\u0621": 4177,
  "\u2581\u064a\u0642\u0648\u0644": 4178,
  "\u2581r\u00e9glementation": 4179,
  "\u2581\u0627\u0644\u062c": 4180,
  "\u2581route": 4181,
  "\u2581t\u00e2che": 4182,
  "\u2581\u0627\u0644\u0641\u0644\u0633\u0637\u064a\u0646\u064a\u064a\u0646": 4183,
  "\u2581\u062d\u0648\u0627\u0644\u064a": 4184,
  "\u2581agent": 4185,
  "\u2581\u0623\u062a": 4186,
  "\u2581\u0645\u062a\u0649": 4187,
  "\u2581rapportant": 4188,
  "\u2581\u064a\u062f\u0639\u0648": 4189,
  "\u2581accent": 4190,
  "\u2581\u0661\u0664": 4191,
  "\u2581met": 4192,
  "\u2581\u0627\u0644\u0622\u062e\u0631": 4193,
  "\u2581exprim\u00e9": 4194,
  "\u2581\u0623\u0638\u0646": 4195,
  "\u2581r\u00e9pression": 4196,
  "\u2581d\u00e9clare": 4197,
  "\u2581comp\u00e9tents": 4198,
  "\u2581800": 4199,
  "\u2581\u0627\u0644\u0623\u062c\u0646\u0628\u064a": 4200,
  "\u2581\u0661\u0669\u0669\u0663": 4201,
  "\u0645\u062b\u0644": 4202,
  "\u2581\u0627\u0644\u0647\u0627\u0645\u0629": 4203,
  "\u2581El": 4204,
  "\u2581\u0623\u062f\u0649": 4205,
  "\u2581\u0623\u0648\u0647": 4206,
  "\u2581exercer": 4207,
  "\u2581\u064a\u062a\u0637\u0644\u0628": 4208,
  "\u2581sign\u00e9": 4209,
  "\u0631\u0627\u0631": 4210,
  "\u2581\u0627\u0644\u0635\u062d\u064a": 4211,
  "\u2581\u0628\u0633\u0631\u0639\u0629": 4212,
  "\u2581parle": 4213,
  "\u2581\u062a\u0631\u062a\u064a\u0628\u0627\u062a": 4214,
  "avait": 4215,
  "\u2581r\u00e8gle": 4216,
  "\u2581\u0623\u0631\u0628\u0639": 4217,
  "\u2581\u0642\u0627\u0646\u0648\u0646\u064a": 4218,
  "\u25814-": 4219,
  "\u2581structures": 4220,
  "\u2581\u061b": 4221,
  "\u2581\u0627\u0644\u062c\u0632\u0631\u064a\u0629": 4222,
  "\u2581Nouvelle": 4223,
  "\u2581insulaires": 4224,
  "\u2581emplois": 4225,
  "\u2581\u062a\u0633\u0627\u0639\u062f": 4226,
  "\u2581priv\u00e9e": 4227,
  "\u2581violences": 4228,
  "\u2581civil": 4229,
  "\u2581\u0631\u0639\u0627\u064a\u0629": 4230,
  "\u2581\u0627\u0644\u0643\u0627\u0645\u0644\u0629": 4231,
  "\u2581contribu\u00e9": 4232,
  "\u2581(2001)": 4233,
  "\u2581\u0648\u0627\u0644\u062f\u0648\u0644": 4234,
  "\u2581classe": 4235,
  "\u2581conclusion": 4236,
  "\u2581\u064a\u0646\u0638\u0631": 4237,
  "\u2581\u0623\u0633\u0628\u0627\u0628": 4238,
  "\u2581religion": 4239,
  "\u2581d\u00e9sormais": 4240,
  "\u2581devenir": 4241,
  "\u2581\u0627\u0644\u0627\u0633\u062a\u0641\u0627\u062f\u0629": 4242,
  "\u2581judiciaires": 4243,
  "\u2581\u0648\u0627\u0644\u0627\u062a\u062d\u0627\u062f": 4244,
  "\u2581semaines": 4245,
  "\u2581\u0648\u0627\u0644\u0645\u062d\u064a\u0637": 4246,
  "\u2581Questions": 4247,
  "\u2581\u00e9troite": 4248,
  "enseignement": 4249,
  "\u2581\u00e9valuations": 4250,
  "\u2581\u0627\u0644\u0623\u0632\u0645\u0629": 4251,
  "\u2581\u0627\u0646\u062a\u0647\u0627\u0643": 4252,
  "\u2581\u0627\u0644\u0625\u0635\u0644\u0627\u062d": 4253,
  "\u2581\u0627\u0644\u0645\u0628\u062f\u0623": 4254,
  "\u2581\u0627\u0644\u0627\u0633\u062a\u0631\u0627\u062a\u064a\u062c\u064a": 4255,
  "\u0623\u062c\u0644": 4256,
  "\u2581\u0628\u0627\u0628": 4257,
  "\u2581\u0648\u0627\u0636\u062d\u0629": 4258,
  "\u2581\u0627\u0644\u0645\u062e\u062a\u0635\u0629": 4259,
  "\u2581\u0648\u0631\u063a\u0645": 4260,
  "\u2581\u0627\u0644\u0648\u0641\u062f": 4261,
  "\u2581\u0627\u0644\u0625\u0639\u062f\u0627\u0645": 4262,
  "\u2581Cinqui\u00e8me": 4263,
  "\u2581\u0648\u0627\u0633\u0639\u0629": 4264,
  "\u2581\u062a\u0639\u0631\u064a\u0641": 4265,
  "\u2581\u063a\u064a\u0646\u064a\u0627": 4266,
  "\u2581\u00e2g\u00e9es": 4267,
  "\u2581\u062c\u0639\u0644": 4268,
  "\u2581\u0628\u0627\u0644\u0639\u0645\u0644": 4269,
  "\u2581complet": 4270,
  "\u2581\u0645\u0624\u0633\u0633\u0629": 4271,
  "\u2581\u0627\u0644\u0635\u0639\u064a\u062f\u064a\u0646": 4272,
  "\u2581\u0631\u062f": 4273,
  "\u2581Procureur": 4274,
  "\u2581\u0648\u0627\u0644\u0633\u064a\u062f": 4275,
  "\u2581stocks": 4276,
  "\u2581strat\u00e9giques": 4277,
  "\u2581\u0627\u0644\u0633\u0627\u0645\u064a": 4278,
  "deuxi\u00e8me": 4279,
  "at": 4280,
  "\u2581\u062a\u0639\u062a\u0645\u062f": 4281,
  "\u2581\u0627\u0644\u0645\u0634\u0627\u0631\u0643\u064a\u0646": 4282,
  "\u2581\u00e9crit": 4283,
  "\u2581Turquie": 4284,
  "\u2581\u0648\u0623\u0634\u0627\u0631\u062a": 4285,
  "\u2581\u0627\u0644\u0625\u0644\u0643\u062a\u0631\u0648\u0646\u064a": 4286,
  "\u2581\u062a\u0624\u062b\u0631": 4287,
  "\u2581investissement": 4288,
  "\u2581effectivement": 4289,
  "\u2581pr\u00e9c\u00e9dent": 4290,
  "\u25811998,": 4291,
  "\u2581\u0644\u0639\u062f\u0645": 4292,
  "\u2581\u0623\u0634\u0627\u0631": 4293,
  "\u2581\u0628\u0647\u0645": 4294,
  "\u2581\u0628\u0644\u0627": 4295,
  "\u2581\u064a\u0633\u0645\u062d": 4296,
  "x": 4297,
  "\u2581\u063a\u0631\u0628": 4298,
  "\u2581acquitter": 4299,
  "Bas": 4300,
  "\u2581intervention": 4301,
  "\u2581\u062a\u062e\u0641\u064a\u0636": 4302,
  "\u2581uni\u00e8me": 4303,
  "\u2581\u0623\u0645\u064a": 4304,
  "\u2581\u0627\u0644\u0627\u0633\u062a\u062c\u0627\u0628\u0629": 4305,
  "\u2581\u0627\u0644\u0645\u0646\u062a\u062f\u0649": 4306,
  "\u2581\u0644\u0623\u062d\u0643\u0627\u0645": 4307,
  "\u2581prison": 4308,
  "\u2581Vice": 4309,
  "\u2581campagne": 4310,
  "\u2581\u0648\u0628\u064a\u0646": 4311,
  "\u2581\u0647\u0643\u0630\u0627": 4312,
  "\u2581\u0648\u062a\u0642\u064a\u064a\u0645": 4313,
  "\u2581compter": 4314,
  "\u2581\u0627\u0644\u0645\u0647\u0627\u0645": 4315,
  "\u2581\u062a\u064a\u0645\u0648\u0631": 4316,
  "\u2581\u0633\u0628\u0642": 4317,
  "\u2581\u062e\u0637\u0631": 4318,
  "\u2581\u062f\u0631\u062c\u0629": 4319,
  "\u2581mandats": 4320,
  "\u2581b\u00e9n\u00e9ficier": 4321,
  "\u2581\u0645\u0642\u0627\u0631\u0646\u0629": 4322,
  "\u2581\u0628\u0627\u0644\u0643\u0627\u0645\u0644": 4323,
  "\u2581mondialisation": 4324,
  "\u2581\u062a\u062d\u0642\u0642": 4325,
  "\u2581\u062a\u0623\u062b\u064a\u0631": 4326,
  "/1": 4327,
  "\u2581prochain": 4328,
  "\u2581\u0627\u0644\u062c\u0646\u0627\u0626\u064a": 4329,
  "del\u00e0": 4330,
  "\u2581\u0623\u0644\u0645\u0627\u0646\u064a\u0627": 4331,
  "\u2581\u0644\u0628\u0646\u0627\u0621": 4332,
  "\u2581\u062a\u0623\u062e\u0630": 4333,
  "\u2581\u0625\u064a": 4334,
  "\u2581Maintenant": 4335,
  "\u2581\u0627\u0644\u0641\u0627\u0639\u0644\u0629": 4336,
  "\u2581suffisamment": 4337,
  "\u2581\u0623\u062d\u0628": 4338,
  "\u2581\u0627\u062a": 4339,
  "\u2581Certains": 4340,
  "\u2581dehors": 4341,
  "\u2581substances": 4342,
  "\u2581\u0628\u062a\u0639\u0632\u064a\u0632": 4343,
  "\u2581\u0627\u0644\u0623\u0643\u062b\u0631": 4344,
  "\u2581\u0639\u0642\u062f\u062a": 4345,
  "\u2581\u0644\u0644\u0646\u0638\u0631": 4346,
  "\u0648\u0643": 4347,
  "\u0645\u0627\u0646": 4348,
  "\u2581\u0648\u0627\u0644\u062d\u0631\u064a\u0627\u062a": 4349,
  "\u2581\u0627\u0644\u0641": 4350,
  "\u2581int\u00e9gr\u00e9": 4351,
  "\u2581causes": 4352,
  "\u2581\u0627\u0644\u0645\u062a\u0639\u062f\u062f": 4353,
  "\u2581Annexe": 4354,
  "\u2581\u0648\u0646\u0638\u0631\u0627": 4355,
  "\u0648\u0639": 4356,
  "\u2581\u062a\u0639\u0627\u0648\u0646": 4357,
  "\u2581\u0639\u0645\u0644\u0647": 4358,
  "\u2581unique": 4359,
  "\u2581arrangements": 4360,
  "\u2581\u0628\u0627\u0639\u062a\u0628\u0627\u0631\u0647\u0627": 4361,
  "\u2581\u0627\u0644\u062a\u0623\u0643\u064a\u062f": 4362,
  "\u2581prenant": 4363,
  "\u2581Monsieur": 4364,
  "\u2581\u00e9quipes": 4365,
  "\u2581\u0627\u0644\u0623\u062f\u0646\u0649": 4366,
  "15": 4367,
  "\u2581\u0627\u0644\u062f\u0648\u0631\u0627\u062a": 4368,
  "\u2581\u0627\u0644\u0623\u062b\u0631": 4369,
  "\u0648\u064a\u0629": 4370,
  "\u2581\u064a\u0639\u0631\u0641": 4371,
  "\u2581cycle": 4372,
  "\u2581menaces": 4373,
  "ar": 4374,
  "\u0627\u0644\u0641\u0642\u0631\u0629": 4375,
  "\u2581\u0627\u0644\u0645\u0631\u0627\u0642\u0628\u0629": 4376,
  "\u2581\u063a\u0636\u0648\u0646": 4377,
  "\u2581\u0628\u062f\u0639\u0645": 4378,
  "\u2581\u0644\u0644\u0641\u0642\u0631\u0629": 4379,
  "\u2581Guin\u00e9e": 4380,
  "\u2581\u0644\u0627\u062a\u0641\u0627\u0642\u064a\u0629": 4381,
  "\u2581\u0627\u0644\u0645\u0644\u062d\u0642": 4382,
  "\u2581\u0644\u0632\u064a\u0627\u062f\u0629": 4383,
  "\u258175": 4384,
  "\u2581\u0627\u0644\u0622\u0644\u064a\u0629": 4385,
  "\u2581vivant": 4386,
  "\u0631\u064a\u062f": 4387,
  "\u00e9nergie": 4388,
  "\u2581\u0627\u0644\u062a\u0646\u0648\u0639": 4389,
  "17": 4390,
  "\u0627\u062a\u0647\u0627": 4391,
  "\u2581\u0641\u0647\u064a": 4392,
  ".9": 4393,
  "\u2581\u0628\u0645\u0646": 4394,
  "\u2581haute": 4395,
  "\u2581\u00e9ch\u00e9ant": 4396,
  "\u2581auquel": 4397,
  "\u2581r\u00e9soudre": 4398,
  "\u2581\u0627\u062e\u062a\u064a\u0627\u0631": 4399,
  "\u2581\u062c\u064a": 4400,
  "\u2581\u0628\u0623": 4401,
  "\u2581rel\u00e8ve": 4402,
  "\u2581\u0645\u062d\u0644": 4403,
  "\u2581utilis\u00e9": 4404,
  "\u2581\u062a\u0645\u0631": 4405,
  "\u2581\u062a\u062d\u0645\u0644": 4406,
  "\u2581\u062a\u0628\u0630\u0644\u0647\u0627": 4407,
  "\u2581\u062d\u0644\u0642\u0627\u062a": 4408,
  "\u2581\u0645\u0642\u0631\u0631": 4409,
  "\u2581candidats": 4410,
  "\u2581m\u00e9thode": 4411,
  "\u0627\u0632": 4412,
  "\u2581\u0628\u0627\u0644\u062a\u0623\u0643\u064a\u062f": 4413,
  "\u2581familiale": 4414,
  "\u2581\u062a\u0646\u0641\u064a\u0630\u0647\u0627": 4415,
  "\"\u060c": 4416,
  "\u2581entier": 4417,
  "\u2581l\u00e9g\u00e8res": 4418,
  "\u2581\u062a\u062a\u0635\u0644": 4419,
  "\u2581\u0627\u0644\u0627\u0639\u062a\u0645\u0627\u062f": 4420,
  "nous": 4421,
  "\u0628\u062a": 4422,
  "\u2581\u062a\u062c\u0627\u0647": 4423,
  "\u2581augment\u00e9": 4424,
  "\u2581truc": 4425,
  "\u2581logistique": 4426,
  "\u2581appelle": 4427,
  "\u2581langue": 4428,
  "\u2581\u0648\u064a\u062c\u0631\u064a": 4429,
  "\u2581\u0630\u064a": 4430,
  "\u2581\u0627\u0644\u062b\u0642\u0627\u0641\u064a\u0629": 4431,
  "\u2581\u0628\u0639\u062b\u0627\u062a": 4432,
  "\u2581\u0625\u0632\u0627\u0644\u0629": 4433,
  "\u064a\u0646\u064a": 4434,
  "\u2581officiels": 4435,
  "\u2581\u0627\u0644\u0645\u0648\u062c\u0647\u0629": 4436,
  "\u2581\u0639\u0645\u0648\u0645\u0627": 4437,
  "\u2581\u0634\u062e\u0635\u0627": 4438,
  "\u2581peines": 4439,
  "\u2581victime": 4440,
  "\u2581saisi": 4441,
  "\u0622": 4442,
  "\u2581op\u00e9ration": 4443,
  "\u2581\u0648\u0642\u0627\u0644\u062a": 4444,
  "\u2581pr\u00eat": 4445,
  "\u2581\u0648\u0628\u0631\u0627\u0645\u062c": 4446,
  "\u2581tu\u00e9": 4447,
  "\u2581\u0627\u0644\u0625\u0633\u0631\u0627\u0626\u064a\u0644\u064a": 4448,
  "\u2581infrastructures": 4449,
  "\u2581\u0645\u0639\u0631\u0641\u0629": 4450,
  "\u0627\u0626": 4451,
  "\u2581ateliers": 4452,
  "\u2581\u0645\u0633\u062a\u0642\u0644\u0629": 4453,
  "\u2581\u0627\u0644\u062b\u0644\u0627\u062b\u0629": 4454,
  "\u2581\u0662\u0660": 4455,
  "\u2581\u0627\u0644\u0645\u062a\u0631\u062a\u0628\u0629": 4456,
  "\u2581revoir": 4457,
  "\u2581\u0641\u0631\u0646\u0633\u0627": 4458,
  "\u2581\u0639\u0627\u0644\u0645": 4459,
  "\u2581\u00e9tats": 4460,
  "\u2581\u0627\u0644\u0645\u062a\u0648\u0633\u0637": 4461,
  "\u2581Tr\u00e8s": 4462,
  "@": 4463,
  "\u2581\u0627\u0644\u0623\u0633\u0645\u0627\u0643": 4464,
  "\u2581\u202b": 4465,
  "\u2581\u062a\u0642\u0639": 4466,
  "\u2581\u062b\u0627\u0646\u064a\u0629": 4467,
  "\u2581\u0633\u0644\u0637\u0627\u062a": 4468,
  "\u2581modifications": 4469,
  "\u2581\u0627\u0644\u062a\u0627\u0645": 4470,
  "\u2581\u062e\u0627\u0631\u062c\u064a\u0629": 4471,
  "\u2581\u0627\u0644\u0645\u0646\u0632\u0644": 4472,
  "\u2581\u0627\u0644\u0646\u0648\u0639": 4473,
  "12": 4474,
  "\u258163": 4475,
  "\u2581\u062e\u062f\u0645\u0629": 4476,
  "\u2581atteint": 4477,
  "\u2581\u062a\u062c\u0631\u064a": 4478,
  "\u2581\u0648\u063a\u064a\u0631\u0647": 4479,
  "\u2581\u0633\u064a\u0631\u0627\u0644\u064a\u0648\u0646": 4480,
  "\u2581Sierra": 4481,
  "\u0633\u0646": 4482,
  "\u2581concours": 4483,
  "\u2581interventions": 4484,
  "\u2581\u0623\u062c\u0647\u0632\u0629": 4485,
  "\u2581perte": 4486,
  "\u2581Leone": 4487,
  "\u2581\u0645\u0639\u0647\u0627": 4488,
  "\u2581pla\u00eet": 4489,
  "\u2581\u0644\u0644\u062f\u0648\u0631\u0629": 4490,
  "\u2581contraire": 4491,
  "\u2581\u0623\u0633\u0639\u0627\u0631": 4492,
  "\u2581\u0627\u0644\u0641\u0639\u0627\u0644": 4493,
  "\u2581\u00e9tranger": 4494,
  "\u2581\u0627\u0644\u0634\u064a\u0621": 4495,
  "\u2581\u0628\u0639\u062f\u0645": 4496,
  "\u2581\u0628\u0627\u0644\u062a\u0642\u0631\u064a\u0631": 4497,
  "\u2581\u0627\u0644\u0633\u0627\u062d\u0644\u064a\u0629": 4498,
  "16": 4499,
  "\u2581\u0648\u0636\u0639\u062a": 4500,
  "\u2581\u0627\u0644\u0622\u0644\u064a\u0627\u062a": 4501,
  "\u2581infraction": 4502,
  "\u2581\u064a\u0643\u0641\u064a": 4503,
  "\u2581\u062d\u0635\u0644\u062a": 4504,
  "\u2581\u0645\u0648\u0638\u0641": 4505,
  "\u2581\u0648\u062e\u062f\u0645\u0627\u062a": 4506,
  "\u2581\u0627\u0644\u0631\u0623\u064a": 4507,
  "25": 4508,
  "\u0625\u0646": 4509,
  "\u2581\u0627\u0644\u0633\u0648\u0631\u064a\u0629": 4510,
  "\u2581\u0639\u0644\u0627\u0642\u0629": 4511,
  "\u0630\u0627": 4512,
  "\u2581\u0648\u062a\u062d\u0642\u064a\u0642": 4513,
  "\u2581\u0648\u0636\u0645\u0627\u0646": 4514,
  "\u0628\u0648": 4515,
  "\u2581milliards": 4516,
  "\u2581\u0627\u0644\u062a\u0642\u062f\u064a\u0631": 4517,
  "\u2581\u0648\u0627\u0644\u0625\u062c\u0631\u0627\u0621\u0627\u062a": 4518,
  "\u2581700": 4519,
  "\u2581\u0627\u0644\u0633\u0646": 4520,
  "\u2581\u062a\u0631\u062f": 4521,
  "\u2581\u00e9tablis": 4522,
  "\u2581\u062e\u0637\u0648\u0627\u062a": 4523,
  "\u2581\u0627\u0644\u0634\u062e\u0635\u064a\u0629": 4524,
  "\u2581\u0627\u0644\u0646\u0627\u062c\u0645\u0629": 4525,
  "\u2581forte": 4526,
  "\u2581\u0641\u0631\u0636": 4527,
  "\u2581\u0627\u0644\u0625\u0644\u0643\u062a\u0631\u0648\u0646\u064a\u0629": 4528,
  "\u2581engag\u00e9": 4529,
  "\u2581\u0633\u064a\u0627\u0633\u064a\u0629": 4530,
  "\u2581appuie": 4531,
  "entre": 4532,
  "\u2581repr\u00e9sentation": 4533,
  "able": 4534,
  "\u2581cadres": 4535,
  "\u2581\u0627\u0644\u0645\u062e\u0635\u0635": 4536,
  "\u2581\u0628\u062f\u0627\u064a\u0629": 4537,
  "\u2581int\u00e9ress\u00e9s": 4538,
  "\u2581modifier": 4539,
  "\u2581\u0644\u0625\u062c\u0631\u0627\u0621": 4540,
  "objectif": 4541,
  "agit": 4542,
  "\u2581\u0627\u0644\u0645\u064a\u062b\u0627\u0642": 4543,
  "\u2581\u0643\u0646\u0627": 4544,
  "\u2581\u0648\u0627\u0644\u0625\u062f\u0627\u0631\u0629": 4545,
  "\u2581usage": 4546,
  "\u2581Loi": 4547,
  "\u2581revenus": 4548,
  "\u2581minimum": 4549,
  "\u2581\u0645\u0631\u0627\u0641\u0642": 4550,
  "\u2581\u0627\u0644\u0625\u062c\u0631\u0627\u0621": 4551,
  "\u2581\u0627\u0644\u0630\u0631\u064a\u0629": 4552,
  "gouvernementales": 4553,
  "\u2581coordonner": 4554,
  "\u2581fort": 4555,
  "47": 4556,
  "\u25812010.": 4557,
  "\u2581\u062a\u0647\u062f\u0641": 4558,
  "\u2581\u062a\u0639\u0631\u0628": 4559,
  "\u0644\u064a\u0646": 4560,
  "\u2581voulu": 4561,
  "\u2581\u0631\u0641\u0639": 4562,
  "espace": 4563,
  "\u2581liaison": 4564,
  "\u2581permettent": 4565,
  "\u2581\u0645\u0634\u062a\u0631\u0643": 4566,
  "\u2581\u0627\u0644\u0628\u064a\u0648\u0644\u0648\u062c\u064a": 4567,
  "\u2581\u0644\u0625": 4568,
  "\u2581\u0627\u0644\u0623\u0644\u0641\u064a\u0629": 4569,
  "\u2581r\u00e9vis\u00e9": 4570,
  "\u2581\u062a\u0642\u062f\u064a\u0631": 4571,
  "\u2581Iran": 4572,
  "\u2581num\u00e9ro": 4573,
  "\u2581destin\u00e9es": 4574,
  "\u2581\u0627\u0644\u0645\u0637\u0627\u0644\u0628\u0629": 4575,
  "\u2581chances": 4576,
  "\u2581\u0627\u0644\u062b\u0644\u0627\u062b": 4577,
  "\u2581\u0627\u0631\u062a\u0641\u0627\u0639": 4578,
  "\u25812009\u060c": 4579,
  "\u2581parfois": 4580,
  "\u2581\u062a\u0634\u0643\u064a\u0644": 4581,
  "\u2581\u0625\u0644\u0647\u064a": 4582,
  "\u2581r\u00e9conciliation": 4583,
  "\u2581\u062c\u0627\u0645\u0639\u0629": 4584,
  "examiner": 4585,
  "\u2581\u062a\u062e\u0637\u064a\u0637": 4586,
  "\u2581valeurs": 4587,
  "\u2581\u0645\u0642\u062a\u0631\u062d\u0627\u062a": 4588,
  "\u2581\u0630\u0627\u062a\u0647\u0627": 4589,
  "\u2581respectivement": 4590,
  "\u062a\u0627": 4591,
  "\u25812010,": 4592,
  "\u2581\u0627\u0644\u0645\u0645\u0627\u0631\u0633\u0629": 4593,
  "\u2581\u00e9conomies": 4594,
  "\u2581\u0627\u0644\u0639\u0638\u0645\u0649": 4595,
  "\u2581\u0627\u0644\u062a\u062d\u0642\u0642": 4596,
  "\u2581\u062f\u0642\u064a\u0642\u0629": 4597,
  "\u2581pacifique": 4598,
  "\u2581\u0627\u0644\u0646\u0647\u0627\u0626\u064a\u0629": 4599,
  "\u2581\u062a\u062a": 4600,
  "\u2581exportations": 4601,
  "\u0631\u064a": 4602,
  "\u2581\u0631\u062c\u0627\u0644": 4603,
  "\u2581\u0627\u0644\u0645\u0643\u0633\u064a\u0643": 4604,
  "\u2581\u0627\u0644\u0639\u0648\u0627\u0645\u0644": 4605,
  "\u2581vouloir": 4606,
  "13": 4607,
  "18": 4608,
  "\u2581maladie": 4609,
  "\u2581amis": 4610,
  "\u2581\u0627\u0633\u062a\u062c\u0627\u0628\u0629": 4611,
  "\u2581pr\u00e9vue": 4612,
  "\u2581auxquelles": 4613,
  "\u2581\u0642\u0644\u0642\u0647\u0627": 4614,
  "\u0643\u064a": 4615,
  "\u2581\u00e9labor\u00e9": 4616,
  "\u2581relation": 4617,
  "\u2581\u0645\u0628\u0627\u062f\u0631\u0627\u062a": 4618,
  "\u2581Timor": 4619,
  "\u2581Chypre": 4620,
  "\u2581\u0645\u062f": 4621,
  "14": 4622,
  "\u2581\u0639\u0627\u0644\u0645\u064a\u0629": 4623,
  "\u0647\u064a": 4624,
  "\u2581v\u00e9rit\u00e9": 4625,
  "\u2581\u062a\u0648\u0642\u0641": 4626,
  "attention": 4627,
  "\u2581\u0627\u0644\u063a\u0627\u0628\u0627\u062a": 4628,
  "\u2581Statut": 4629,
  "\u2581spatiales": 4630,
  "\u2581\u0627\u0644\u0645\u0631\u062a\u0628\u0637\u0629": 4631,
  "\u0643\u0645\u0627": 4632,
  "\u2581reprise": 4633,
  "\u2581\u0627\u0644\u0632\u064a\u0627\u062f\u0629": 4634,
  "\u2581perdu": 4635,
  "\u2581ami": 4636,
  "\u2581Grande": 4637,
  "\u2581\u0648\u0633\u0627\u0626\u0637": 4638,
  "\u2581consacr\u00e9": 4639,
  "\u2581Parlement": 4640,
  "\u2581\u0627\u0644\u0633\u0648\u0642": 4641,
  "\u2581\u062a\u0639\u062a\u0642\u062f": 4642,
  "\u2581\u0627\u0644\u0634\u0643\u0648\u0649": 4643,
  "\u2581Norv\u00e8ge": 4644,
  "\u2581\u064a\u0648\u0627\u0635\u0644": 4645,
  "\u2581\u0627\u0644\u0639\u0644\u0645": 4646,
  "\u2581apport\u00e9": 4647,
  "\u2581\u062a\u0631\u0643": 4648,
  "\u2581communiquer": 4649,
  "\u2581\u0627\u062a\u062e\u0630\u062a": 4650,
  "\u2581existants": 4651,
  "\u2581\u0643\u0644\u0645\u0629": 4652,
  "\u0648\u062a": 4653,
  "\u2581Allemagne": 4654,
  "\u258168": 4655,
  "\u2581\u0627\u0644\u0645\u0624\u0633\u0633\u064a\u0629": 4656,
  "\u2581unit\u00e9s": 4657,
  "\u2581mineurs": 4658,
  "\u2581commencer": 4659,
  "\u2581\u0623\u0642\u0631\u0628": 4660,
  "\u2581\u0648\u062a\u062d\u062f\u064a\u062f": 4661,
  "\u2581\u0635\u0639\u064a\u062f": 4662,
  "\u2581\u0627\u0644\u0633\u0644\u0648\u0643": 4663,
  "\u2581\u0627\u0644\u0645\u0639\u0642\u0648\u062f": 4664,
  "\u2581rem\u00e9dier": 4665,
  "\u2581organiser": 4666,
  "\u2581\u0641\u0631\u0642\u0629": 4667,
  "\u2581minutes": 4668,
  "aurais": 4669,
  "\u2581M\u00eame": 4670,
  "/4": 4671,
  "\u00c9tats": 4672,
  "\u2581\u0640\u0640": 4673,
  "\u2581handicap\u00e9s": 4674,
  "\u2581\u0631\u0623\u0633": 4675,
  "70": 4676,
  "\u2581suppl\u00e9mentaire": 4677,
  "\u2581\u0648\u0630\u0643\u0631": 4678,
  "\u2581essentiels": 4679,
  "\u2581pacifiques": 4680,
  "\u2581\u0634\u0623\u0646\u0647": 4681,
  "\u2581temporaire": 4682,
  "\u2581bas": 4683,
  "l\u00e0": 4684,
  "CP": 4685,
  "\u2581manifestations": 4686,
  "\u2581\u0627\u0644\u0627\u0633\u062a\u0634\u0627\u0631\u064a": 4687,
  "\u2581penser": 4688,
  "\u258166": 4689,
  "\u2581fronti\u00e8re": 4690,
  "\u2581\u0627\u0644\u0645\u0633\u0644\u062d": 4691,
  "\u2581\u0627\u0644\u0628\u0646\u0643": 4692,
  "\u2581\u064a\u0633\u0627\u0639\u062f": 4693,
  "\u2581\u0627\u0644\u0625\u0642\u0644\u064a\u0645": 4694,
  "\u2581gaz": 4695,
  "\u2581\u0627\u0644\u062e\u0627\u0631\u062c": 4696,
  "\u2581touch\u00e9s": 4697,
  "\u2581moiti\u00e9": 4698,
  "\u2581expos\u00e9": 4699,
  "45": 4700,
  "\u2581durables": 4701,
  "\u2581heure": 4702,
  "\u258167": 4703,
  "\u2581\u0643\u0648\u062a": 4704,
  "\u2581transports": 4705,
  "\u2581\u0648\u062a\u0644\u0627\u062d\u0638": 4706,
  "\u2581consacr\u00e9e": 4707,
  "\u25815-": 4708,
  "ter": 4709,
  "\u2581r\u00e9clamations": 4710,
  "\u2581mots": 4711,
  "\u2581marchandises": 4712,
  "\u2581devra": 4713,
  "\u2581\u0627\u0644\u0645\u0648\u0627\u0637\u0646\u064a\u0646": 4714,
  "\u2581Moi": 4715,
  "\u2581\u0648\u0645\u0643\u062a\u0628": 4716,
  "\u2581\u062a\u062d\u062f\u062f": 4717,
  "23": 4718,
  "\u2581(2004)": 4719,
  "\u25811373": 4720,
  "\u2581Bonjour": 4721,
  "\u2581\u0627\u0644\u0641\u062a\u064a\u0627\u062a": 4722,
  "\u2581susceptibles": 4723,
  "\u062f\u0627\u0646": 4724,
  "\u2581int\u00e9grer": 4725,
  ".1)": 4726,
  "\u2581\u0627\u0644\u0645\u062f\u0639\u064a": 4727,
  "tandis": 4728,
  "\u2581tenues": 4729,
  "\u2581reconstruction": 4730,
  "\u2581\u0627\u0644\u0643\u0628\u064a\u0631\u0629": 4731,
  "\u2581\u0628\u0645\u0642\u062a\u0636\u0649": 4732,
  "\u2581trente": 4733,
  "\u2581\u0648\u0627\u0644\u0642\u0627\u0646\u0648\u0646": 4734,
  "\u2581\u0644\u0645\u0633\u0627\u0639\u062f\u0629": 4735,
  "\u2581Gaza": 4736,
  "\u0633\u0648\u0646": 4737,
  "\u2581Australie": 4738,
  "\u2581\u0642\u0631\u0631": 4739,
  "\u2581\u064a\u0631\u064a\u062f": 4740,
  "\u2581pr\u00e9vus": 4741,
  "\u2581\u064a\u0636\u0637\u0644\u0639": 4742,
  "\u2581\u0645\u0635\u0631": 4743,
  "\u2581\u0647\u0627\u064a\u062a\u064a": 4744,
  "\u2581\u0633\u0645\u0639\u062a": 4745,
  "\u2581\u0627\u0644\u0637\u0627\u0628\u0639": 4746,
  "\u2581dot\u00e9s": 4747,
  "\u25811997,": 4748,
  "\u2581\u062f\u064a\u0633\u0645\u0628\u0631": 4749,
  "43": 4750,
  "\u2581Deuxi\u00e8me": 4751,
  "\u2581lien": 4752,
  "\u2581correspondant": 4753,
  "35": 4754,
  "\u2581viens": 4755,
  "\u2581issue": 4756,
  "\u2581\u0627\u0644\u0628\u062d\u0648\u062b": 4757,
  "\u2581\u062c\u0647\u0629": 4758,
  "\u2581\u0644\u0644\u0628\u0639\u062b\u0629": 4759,
  "\u2581\u062a\u062a\u0633\u0645": 4760,
  "2-": 4761,
  "\u2581officielles": 4762,
  "\u2581\u0663\u0661": 4763,
  "\u2581\u0627\u0644\u0637\u0631\u0642": 4764,
  "\u064a\u062a\u0647\u0627": 4765,
  "\u2581Cet": 4766,
  "\u2581\u00bb,": 4767,
  "\u2581honneur": 4768,
  "\u2581\u0627\u0644\u0637\u0631\u0641\u064a\u0646": 4769,
  "\u0627\u0626\u064a\u0629": 4770,
  "\u2581jou\u00e9": 4771,
  "\u2581\u0663\u0660": 4772,
  "\u2581\u0644\u062a\u0648\u0641\u064a\u0631": 4773,
  "44": 4774,
  "\u2581\u0648\u0627\u0644\u0645\u0648\u0627\u0631\u062f": 4775,
  "\u2581Premier": 4776,
  "quatri\u00e8me": 4777,
  "\u2581\u0648\u0642\u0639\u062a": 4778,
  "\u2581Corr": 4779,
  "\u2581Dis": 4780,
  "\u2581effectif": 4781,
  "\u2581\u0628\u0646\u062f": 4782,
  "\u2581moyenne": 4783,
  "\u0641\u0631": 4784,
  "\u2581signature": 4785,
  "\u2581pr\u00eats": 4786,
  "\u2581engager": 4787,
  "\u2581commercial": 4788,
  "\u2581\u0623\u0631\u062f\u062a": 4789,
  "(:": 4790,
  "\u2581calendrier": 4791,
  "\u2581\u0628\u0639\u0645\u0644": 4792,
  "\u2581mari": 4793,
  "\u2581achats": 4794,
  "\u2581Aux": 4795,
  "\u2581\u0628\u0634\u0623\u0646\u0647\u0627": 4796,
  "\u2581\u0627\u0644\u0623\u0631\u062c\u0646\u062a\u064a\u0646": 4797,
  "\u2581\u0623\u0641\u0639\u0644": 4798,
  "\u2581Irlande": 4799,
  "\u2581individus": 4800,
  "\u2581\u0627\u0644\u0634\u0628\u0643\u0629": 4801,
  "\u2581\u0627\u0644\u0642\u0636\u0627\u0626\u064a": 4802,
  "\u062f\u062a": 4803,
  "\u2581\u0643\u0627\u0641": 4804,
  "\u2581\u062c\u0627\u0621": 4805,
  "\u2581\u0634\u0643": 4806,
  "\u2581\u0628\u062d\u0645\u0627\u064a": 4807,
  "\u2581\u0623\u0635\u0644": 4808,
  "\u2581\u0627\u0644\u0633\u062c\u0646": 4809,
  "\u2581\u062f\u0639\u0645\u0627": 4810,
  "\u2581parl\u00e9": 4811,
  "\u2581\u0627\u0644\u0642\u0627\u062f\u0645\u0629": 4812,
  "\u25811995,": 4813,
  "\u2581\u0633\u0627\u0639\u0629": 4814,
  "\u2581arm\u00e9e": 4815,
  "\u0631\u0628": 4816,
  "\u2581prestations": 4817,
  "\u2581pied": 4818,
  "\u2581\u0627\u0644\u0623\u062f\u0644\u0629": 4819,
  "\u2581\u0627\u0644\u0631": 4820,
  "\u2581auront": 4821,
  "\u2581\u0627\u0646\u0643": 4822,
  "\u2581\u062a\u062d\u062f\u062b": 4823,
  "\u2581\u0627\u0644\u062f\u0639\u0648\u0629": 4824,
  "\u2581p\u00eache": 4825,
  "qui": 4826,
  "\u2581\u0645\u062c\u062a\u0645\u0639": 4827,
  "\u0627\u0626\u0647\u0627": 4828,
  "\u2581Strat\u00e9gie": 4829,
  "\u0639\u064a": 4830,
  "\u2581Deux": 4831,
  "\u2581r\u00e9vision": 4832,
  "\u2581\u0648\u062d\u062f\u0627\u062a": 4833,
  "\u2581\u0648\u0627\u0644\u0645\u0627\u0644\u064a\u0629": 4834,
  "36": 4835,
  "\u2581\u0628\u062a\u0642\u0631\u064a\u0631": 4836,
  "\u2581\u0623\u0634\u062e\u0627\u0635": 4837,
  "\u2581\u0627\u0644\u0639\u0633\u0643\u0631\u064a": 4838,
  "\u2581connais": 4839,
  "\u2581soldats": 4840,
  "\u2581\u0648\u0623\u062e\u064a\u0631\u0627": 4841,
  "\u2581\u0648\u0631\u0642\u0629": 4842,
  "\u2581\u0627\u0644\u0645\u0646\u0627\u0641\u0633\u0629": 4843,
  "\u2581\u0623\u0639\u0646\u064a": 4844,
  "\u2581ratification": 4845,
  "\u2581\u0643\u0627\u0645\u0644\u0627": 4846,
  "\u2581\u0623\u0642\u0648\u0644": 4847,
  "\u2581\u0627\u0644\u0645\u0637\u0644\u0648\u0628": 4848,
  "\u2581profit": 4849,
  "-5": 4850,
  "\u2581\u0627\u0644\u062a\u0627\u0631\u064a\u062e": 4851,
  "\u2581vivre": 4852,
  "\u2581\u0648\u0644\u062c\u0646\u0629": 4853,
  "\u2581\u062a\u0628\u062f\u0648": 4854,
  "\u2581\u0634\u0645\u0627\u0644": 4855,
  "\u2581\u0648\u062c\u062f\u062a": 4856,
  "\u2581\u0627\u0644\u062a\u0645\u062a\u0639": 4857,
  "\u2581conscience": 4858,
  "\u063a\u064a": 4859,
  "\u2581nouvel": 4860,
  "\u2581\u0627\u0644\u0628\u0639\u0636": 4861,
  "\u2581histoire": 4862,
  "\u2581\u0627\u0644\u0623\u0633\u0628\u0627\u0628": 4863,
  "\u2581\u062a\u062f\u062e\u0644": 4864,
  "\u2581souverainet\u00e9": 4865,
  "\u2581statistique": 4866,
  "\u2581fr\u00e8re": 4867,
  "\u2581fournisseurs": 4868,
  "\u25811994,": 4869,
  "\u0627\u0643": 4870,
  "\u2581\u0631\u0641\u0636": 4871,
  "22": 4872,
  "\u2581Internet": 4873,
  "\u2581\u0627\u0644\u0645\u0624\u0633\u0633\u0629": 4874,
  "\u0628\u064a\u0646": 4875,
  "\u2581\u064a\u062f": 4876,
  "\u2581presque": 4877,
  "\u2581\u0623\u0643\u0648\u0646": 4878,
  "\u2581\u0644\u0639\u0645\u0644\u064a\u0629": 4879,
  "\u2581and": 4880,
  "\u2581meilleures": 4881,
  "organisations": 4882,
  "\u2581\u0625\u0646\u0647\u0627\u0621": 4883,
  "\u2581central": 4884,
  "w": 4885,
  "\u2581Commissaire": 4886,
  "\u2581conception": 4887,
  "\u2581continuera": 4888,
  "\u2581rappel\u00e9": 4889,
  "\u2581pr\u00e9visions": 4890,
  "27": 4891,
  "\u2581al": 4892,
  "\u2581\u0628\u0627\u0644\u0623\u0634\u062e\u0627\u0635": 4893,
  "\u2581danger": 4894,
  "\u2581\u0627\u0644\u0625\u0631\u0647\u0627\u0628\u064a\u0629": 4895,
  "\u2581\u0627\u0644\u0639\u0642\u0648\u0628\u0629": 4896,
  "\u2581\u0645\u062a\u0648\u0633\u0637": 4897,
  "\u2581\u0635\u063a\u064a\u0631\u0629": 4898,
  "\u2581\u0627\u0644\u0633\u0644\u0627\u0645\u0629": 4899,
  "\u2581\u0648\u0623\u0646\u062a": 4900,
  "www": 4901,
  "\u2581\u0644\u0625\u0639\u0627\u062f\u0629": 4902,
  "\u2581\u0644\u0645\u0643\u062a\u0628": 4903,
  "\u2581\u0625\u0642\u0644\u064a\u0645": 4904,
  "\u0633\u0631": 4905,
  "\u2581\u0627\u0644\u0628\u0631\u0627\u0632\u064a\u0644": 4906,
  "\u2581\u062a\u0635\u0645\u064a\u0645": 4907,
  "\u2581\u0648\u0643\u0644": 4908,
  "eux": 4909,
  "sixi\u00e8me": 4910,
  "\u2581\u0641\u0645\u0646": 4911,
  "\u2581villes": 4912,
  "\u2581organis\u00e9es": 4913,
  "\u2581\u0627\u0644\u062a\u0641\u0627\u0648\u0636": 4914,
  "\u2581saisie": 4915,
  "UNICEF": 4916,
  "\u2581\u0661\u0666": 4917,
  "\u2581v\u00e9hicules": 4918,
  "\u2581\u0627\u0644\u0627\u0633\u062a\u062e\u062f\u0627\u0645": 4919,
  "\u2581Lib\u00e9ria": 4920,
  "CONF": 4921,
  "ad": 4922,
  "\u2581\u0628\u063a\u0631\u0636": 4923,
  "\u2581\u0627\u0644\u062a\u0643\u0644\u0641\u0629": 4924,
  "\u2581restrictions": 4925,
  "\u2581\u0660\u0660\u0660": 4926,
  "\u2581devrais": 4927,
  "\u2581\u0648\u0635\u0648\u0644": 4928,
  "\u2581Votre": 4929,
  "\u2581transit": 4930,
  "me": 4931,
  "\u2581\u0647\u0627\u0621": 4932,
  "\u25811996,": 4933,
  "\u0631\u0636": 4934,
  "\u2581\u0628\u0648\u0636\u0648\u062d": 4935,
  "\u2581(1)": 4936,
  "\u2581\u0627\u0644\u0642\u064a\u0645\u0629": 4937,
  "\u2581\u062a\u0634\u0639\u0631": 4938,
  "\u2581\u0635\u062d\u0629": 4939,
  "\u2581\u00eeles": 4940,
  "\u2581\u00e9v\u00e9nements": 4941,
  "\u2581\u0628\u0641\u064a\u0631\u0648\u0633": 4942,
  "39": 4943,
  "26": 4944,
  "\u2581Quel": 4945,
  "\u2581pr\u00e9sident": 4946,
  "\u2581\u0627\u0644\u0625\u0646\u062a\u0627\u062c": 4947,
  "\u2581\u0644\u062a\u0645\u0648\u064a\u0644": 4948,
  "\u2581Suisse": 4949,
  "\u2581pr\u00e9parer": 4950,
  "\u2581of": 4951,
  "\u2581vite": 4952,
  "\u2581\u0627\u0644\u0648\u0632\u0627\u0631\u064a": 4953,
  "\u2581\u062a\u0645\u0643\u064a\u0646": 4954,
  "\u2581poursuites": 4955,
  "\u2581juridiction": 4956,
  "\u2581\u064a\u0643\u0641\u0644": 4957,
  "\u2581\u0627\u0644\u0639\u0642\u0627\u0628": 4958,
  "\u2581re\u00e7ues": 4959,
  "\u2581\u0627\u0644\u0644": 4960,
  "int\u00e9rieur": 4961,
  "\u0627\u0639": 4962,
  "\u0641\u0629": 4963,
  "\u2581\u00e9tablie": 4964,
  "\u2581\u0627\u0644\u0644\u0630\u064a": 4965,
  "\u2581(1999)": 4966,
  "\u2581pouvant": 4967,
  "\u0623\u064a": 4968,
  "\u2581\u064a\u0635\u0628\u062d": 4969,
  "\u2581\u0645\u0648\u0627\u062c\u0647\u0629": 4970,
  "\u2581\u0645\u0647\u0627\u0645": 4971,
  "\u062f\u0627\u0631": 4972,
  "\u2581expression": 4973,
  "\u2581\u062a\u0631\u0645\u064a": 4974,
  "\u062f\u0648": 4975,
  "\u2581\u0648\u0627\u0644\u0646\u0633\u0627\u0621": 4976,
  "\u2581\u0648\u0633\u0637": 4977,
  "\u2581communs": 4978,
  "\u2581\u064a\u062a\u064a\u062d": 4979,
  "\u2581yeux": 4980,
  "\u2581\u0634\u0639\u0628": 4981,
  "\u2581tour": 4982,
  "\u2581arriv\u00e9": 4983,
  "\u2581rend": 4984,
  "\u2581agriculture": 4985,
  "\u2581existence": 4986,
  "\u2581\u0625\u0646\u062c\u0627\u0632": 4987,
  "\u2581illicites": 4988,
  "\u2581utilis\u00e9es": 4989,
  "\u2581etc": 4990,
  "\u2581\u0627\u0644\u0627\u0633\u062a\u0626\u0645\u0627\u0646\u064a": 4991,
  "\u2581\u0627\u0633\u0645": 4992,
  "\u2581pourcentage": 4993,
  "\u2581limites": 4994,
  "\u2581documentation": 4995,
  "\u2581ouverte": 4996,
  "\u2581\u064a\u0639\u064a\u0634\u0648\u0646": 4997,
  "\u2581\u0623\u0645\u064a\u0646": 4998,
  "\u2581\u0648\u0627\u0644\u0632\u0631\u0627\u0639\u0629": 4999,
  "\u0640\u0640\u0640\u0640\u0640": 5000,
  "\u2581d\u00e9sol\u00e9": 5001,
  "\u0631\u0633": 5002,
  "\u2581\u0628\u0623\u0633": 5003,
  "\u2581\u0627\u0644\u062c\u0648\u064a": 5004,
  "\u062c\u0645\u0647\u0648\u0631\u064a\u0629": 5005,
  "\u2581g\u00e9ographique": 5006,
  "m\u00eames": 5007,
  "cinqui\u00e8me": 5008,
  "\u2581\u0648\u0627\u0644\u062c\u0631\u064a\u0645\u0629": 5009,
  "\u2581bonnes": 5010,
  "\u2581\u0633\u062c\u0644": 5011,
  "\u2581\u0627\u0644\u0636\u0631\u0648\u0631\u064a\u0629": 5012,
  "\u2581mobilisation": 5013,
  "\u2581\u0623\u0642\u0635\u0649": 5014,
  "\u2581directeur": 5015,
  "\u2581\u0627\u0644\u0628\u0631\u0644\u0645\u0627\u0646": 5016,
  "\u2581version": 5017,
  "eur": 5018,
  "\u2581suivante": 5019,
  "\u2581cinqui\u00e8me": 5020,
  "\u2581\u062a\u0648\u062f": 5021,
  "\u2581\u062a\u0646": 5022,
  "\u2581\u0628\u0644\u063a\u062a": 5023,
  "\u2581d\u00fbment": 5024,
  "\u2581\u062c\u0644\u0633\u0627\u062a": 5025,
  "\u2581\u0641\u0644\u0627": 5026,
  "\u2581\u0627\u0644\u0623\u0648\u0644\u0648\u064a\u0627\u062a": 5027,
  "Iraq": 5028,
  "\u2581\u062a\u062a\u0646\u0627\u0648\u0644": 5029,
  "58": 5030,
  "\u2581\u0648\u0642\u0627\u0646\u0648\u0646": 5031,
  "\u2581\u0623\u0648\u0644\u0648\u064a\u0629": 5032,
  "\u2581\u062a\u0628\u064a\u0646": 5033,
  "\u2581\u0627\u0644\u0642\u0636\u0627\u0629": 5034,
  "\u2581\u0623\u0647\u0645": 5035,
  "48": 5036,
  "\u2581trouvera": 5037,
  "\u2581\u0645\u062f\u064a\u0646\u0629": 5038,
  "\u2581\u0648\u062a\u0631\u062f": 5039,
  "\u062d\u062a": 5040,
  "\u2581900": 5041,
  "\u2581\u0627\u0644\u0635\u0641\u062d\u0629": 5042,
  "\u2581petites": 5043,
  "\u2581Eh": 5044,
  "8": 5045,
  "\u2581pro": 5046,
  "\u2581\u0627\u0644\u0627\u0633\u062a": 5047,
  "ta": 5048,
  "\u2581Pendant": 5049,
  "\u2581\u0627\u0644\u0631\u0627\u0647\u0646\u0629": 5050,
  "\u0643\u0627\u0646": 5051,
  "\u2581\u0627\u0644\u0630\u0647\u0627\u0628": 5052,
  "\u2581Pr\u00e9sidente": 5053,
  "\u2581all\u00e9gations": 5054,
  "\u2581\u0634\u0631\u0637\u0629": 5055,
  "\u2581r\u00e9sultat": 5056,
  "\u2581\u0631\u0648\u0627\u0646\u062f\u0627": 5057,
  "\u2581\u063a\u0632\u0629": 5058,
  "\u2581permettra": 5059,
  "\u2581\u0642\u0628\u0631\u0635": 5060,
  "\u2581occupation": 5061,
  "\u2581\u062a\u062a\u0637\u0644\u0628": 5062,
  "\u2581\u0644\u0644\u0627\u062a\u062d\u0627\u062f": 5063,
  "\u2581\u0627\u0644\u0639\u0645\u0627\u0644\u0629": 5064,
  "\u2581couvrir": 5065,
  "\u2581VI": 5066,
  "\u2581active": 5067,
  "\u2581\u0648\u0642\u0648\u0639": 5068,
  "\u2581formuler": 5069,
  "\u2581H\u00e9": 5070,
  "\u2581mod\u00e8le": 5071,
  "\u2581\u0627\u0644\u062c\u0627\u0646\u0628": 5072,
  "\u2581universel": 5073,
  "\u062d\u0633\u0646\u0627": 5074,
  "\u2581\u062f\u0627\u0631\u0641\u0648\u0631": 5075,
  "\u2581\u0627\u0644\u0645\u0646\u0638\u0648\u0631": 5076,
  "\u2581proc\u00e9d\u00e9": 5077,
  "\u2581\u0648\u0623\u0648\u062f": 5078,
  "\u2581\u062a\u0633\u0645\u062d": 5079,
  "\u2581\u0646\u0641\u0642\u0627\u062a": 5080,
  "\u2581l\u00e9gislatives": 5081,
  "\u2581J\u00e9hovah": 5082,
  "\u2581\u0625\u062d\u0631\u0627\u0632": 5083,
  "\u2581\u0628\u0627\u0644\u0642\u0631\u0627\u0631": 5084,
  "\u2581\u062a\u062e\u0635\u064a\u0635": 5085,
  "\u2581\u0627\u0644\u0643\u0644\u0645\u0629": 5086,
  "Z\u00e9lande": 5087,
  "\u2581distribution": 5088,
  "\u2581\u0627\u0644\u0645\u062a\u0643\u0627\u0645\u0644\u0629": 5089,
  "\u2581t\u00e9moins": 5090,
  "\u2581\u0627\u0644\u0623\u062d\u064a\u0627\u0646": 5091,
  "\u2581\u0633\u0646\u0648\u064a\u0627": 5092,
  "\u2581outils": 5093,
  "\u0631\u0627": 5094,
  "\u2581\u0648\u0623\u0639\u0631\u0628\u062a": 5095,
  "exploitation": 5096,
  "\u258111.": 5097,
  "\u2581totale": 5098,
  "\u2581\u0627\u0644\u0646\u0627\u062a\u062c": 5099,
  "\u2581diminution": 5100,
  "\u2581Rien": 5101,
  "80": 5102,
  "\u2581d\u00e9part": 5103,
  "\u2581joue": 5104,
  "\u2581\u0627\u0644\u062d\u0638\u0631": 5105,
  "\u00e9conomie": 5106,
  "\u2581\u0627\u062a\u062e\u0630\u062a\u0647\u0627": 5107,
  "\u2581\u062d\u0633\u0627\u0628\u0627\u062a": 5108,
  "\u2581\u0627\u0645\u0631\u0623\u0629": 5109,
  "9": 5110,
  "agissant": 5111,
  "\u2581\u0644\u0644\u0646\u0633\u0627\u0621": 5112,
  "\u2581\u0648\u0645\u0646\u0630": 5113,
  "\u2581\u0627\u0644\u0645\u062a\u0643\u0627\u0645\u0644": 5114,
  "\u2581discussions": 5115,
  "\u2581\u0648\u0641\u062f\u0647": 5116,
  "\u2581\u064a\u0648\u063a\u0648\u0633\u0644\u0627\u0641\u064a\u0627": 5117,
  "\u2581habitants": 5118,
  "\u0647\u062c": 5119,
  "\u2581dispositif": 5120,
  "\u2581\u0627\u0644\u0642\u064a\u0648\u062f": 5121,
  "\u2581iii": 5122,
  "\u2581\u0627\u0646\u0639\u0642\u0627\u062f": 5123,
  "\u2581(19": 5124,
  "\u2581\u0627\u0644\u0635": 5125,
  "\u2581touchant": 5126,
  "\u2581\u0644\u062c\u0645\u0647\u0648\u0631\u064a\u0629": 5127,
  "\u2581\u0627\u0644\u0633\u0627\u062f\u0633": 5128,
  "\u2581\u0627\u0644\u0645\u062f\u064a\u0646\u0629": 5129,
  "\u0640(": 5130,
  "\u2581Burundi": 5131,
  "\u2581huit": 5132,
  "\u2581constat\u00e9": 5133,
  "\u2581propose": 5134,
  "\u2581communes": 5135,
  "\u2581Afin": 5136,
  "\u2581\u00eatres": 5137,
  "\u2581\u0625\u062f\u062e\u0627\u0644": 5138,
  "\u2581\u0627\u0644\u0628\u0646\u0648\u062f": 5139,
  "\u2581unit\u00e9": 5140,
  "\u2581relever": 5141,
  "\u2581\u0627\u0644\u0632\u0631\u0627\u0639\u0629": 5142,
  "\u2581\u0628\u0623\u0646\u0634\u0637\u0629": 5143,
  "\u2581court": 5144,
  "\u2581\u0627\u0644\u0634\u0631\u0643\u0629": 5145,
  "28": 5146,
  "\u2581\u062a\u062a\u064a\u062d": 5147,
  "\u2581longue": 5148,
  "\u2581\u0648\u062a\u0648\u0635\u064a": 5149,
  "\u2581\u062a\u0631\u0643\u0632": 5150,
  "\u2581\u062a\u0648\u0627\u0641\u0631": 5151,
  "\u2581\u0648\u0642\u062f\u0645\u062a": 5152,
  "\u2581\u0628\u0627\u0643\u0633\u062a\u0627\u0646": 5153,
  "\u2581n\u00e9gociation": 5154,
  "\u2581matin": 5155,
  "\u2581partis": 5156,
  "\u0627\u0644\u0645\u0645\u0644\u0643\u0629": 5157,
  "\u2581\u0627\u0644\u0639\u0648\u0644\u0645\u0629": 5158,
  "\u2581\u0623\u062f\u0646\u0649": 5159,
  "Sud": 5160,
  "\u0648\u0646\u064a": 5161,
  "\u2581fera": 5162,
  "\u2581\u00c9": 5163,
  "\u2581\u0644\u0639\u0645\u0644\u064a\u0627\u062a": 5164,
  "\u2581\u0623\u0645\u0631\u0627": 5165,
  "\u2581\u0627\u0644\u064a\u0648\u0646\u064a\u062f\u0648": 5166,
  "\u2581devoir": 5167,
  "\u2581\u0648\u0627\u0644\u0635\u062d\u0629": 5168,
  "\u0627\u0626\u0644": 5169,
  "\u0645\u0631": 5170,
  "\u2581\u0623\u0633\u0627\u0633\u064a": 5171,
  "46": 5172,
  "\u2581\u0628\u0623\u0647\u0645\u064a\u0629": 5173,
  "38": 5174,
  "\u2581\u062a\u0636\u0645\u0646": 5175,
  "\u2581\u0627\u0644\u0637\u0644\u0628\u0627\u062a": 5176,
  "\u2581mortalit\u00e9": 5177,
  "\u2581\u0644\u0627\u0633\u062a\u0639\u0631\u0627\u0636": 5178,
  "\u062c\u0631\u064a": 5179,
  "\u2581pr\u00e9sent\u00e9e": 5180,
  "t\u00e9": 5181,
  "heure": 5182,
  "\u2581offrir": 5183,
  "\u0643\u062a": 5184,
  "\u2581\u0627\u0644\u062d\u0627\u062f\u064a": 5185,
  "ro": 5186,
  "\u2581\u062a\u0630\u0643\u0631": 5187,
  "\u2581priv\u00e9es": 5188,
  "\u2581\u0644\u064a\u0628\u0631\u064a\u0627": 5189,
  "\u2581\u062c\u0631\u062a": 5190,
  "\u2581\u0661\u0668": 5191,
  "\u2581\u062a\u0635\u0648\u064a\u062a": 5192,
  "\u2581\u0648\u0627\u0644\u0635\u064a\u0646": 5193,
  "\u2581\u0628\u0627\u062a\u062e\u0627\u0630": 5194,
  "\u2581\u062f\u062e\u0648\u0644": 5195,
  "\u2581\u0648\u062b\u0645\u0629": 5196,
  "\u2581\u0627\u0644\u0645\u0631\u0627\u0641\u0642": 5197,
  "\u2581\u0648\u0627\u0636\u062d": 5198,
  "\u2581\u0648\u0627\u0644\u062a\u0648\u0635\u064a\u0627\u062a": 5199,
  "\u2581mec": 5200,
  "\u2581combien": 5201,
  "\u2581\u0627\u0644\u062c\u0632\u0627\u0621\u0627\u062a": 5202,
  "\u2581\u0627\u0644\u0643\u0628\u064a\u0631": 5203,
  "\u2581croire": 5204,
  "\u2581Nombre": 5205,
  "\u2581g\u00e9rer": 5206,
  "\u2581repr\u00e9sentent": 5207,
  "\u2581supr\u00eame": 5208,
  "\u2581\u0628\u0648\u0631\u0648\u0646\u062f\u064a": 5209,
  "\u2581\u0627\u0644\u0645\u0647\u0645\u0629": 5210,
  "\u2581\u0646\u0648\u0639\u064a\u0629": 5211,
  "informations": 5212,
  "\u2581faute": 5213,
  "\u2581\u0644\u0644\u0627\u062a\u0641\u0627\u0642\u064a\u0629": 5214,
  "\u2581\u063a": 5215,
  "\u2581faisait": 5216,
  "ia": 5217,
  "\u2581Colombie": 5218,
  "\u2581D\u00e9cennie": 5219,
  "\u2581\u0632": 5220,
  "\u2581\u0627\u0644\u0646\u0641\u0627\u064a\u0627\u062a": 5221,
  "%": 5222,
  "\u2581malgr\u00e9": 5223,
  "\u2581\u0627\u0644\u0645\u0644\u0627\u0626\u0645\u0629": 5224,
  "\u2581C\u00f4te": 5225,
  "\u2581\u0623\u0633\u0627\u0644\u064a\u0628": 5226,
  "\u2581\u062f\u0631\u0627\u0633\u064a\u0629": 5227,
  "\u2581obtenus": 5228,
  "\u2581\u0627\u0644\u062f\u0631\u0627\u0633\u0627\u062a": 5229,
  "im": 5230,
  "\u2581\u0627\u0644\u0645\u062d\u062f\u062f": 5231,
  "\u2581\u0644\u0642\u0627\u0646\u0648\u0646": 5232,
  "\u2581\u0627\u0644\u0639\u0644\u0627\u0642\u0629": 5233,
  "\u2581\u0623\u0639\u0631\u0628\u062a": 5234,
  "90": 5235,
  "\u2581\u0645\u0639\u0627\u0645\u0644\u0629": 5236,
  "\u2581\u0648\u0644\u0643\u0646\u0647\u0627": 5237,
  "\u2581Maroc": 5238,
  "\u2581\u0661\u0667": 5239,
  "\u2581\u0644\u0644\u062d\u062f": 5240,
  "\u2581migrations": 5241,
  "\u2581\u0639\u0627\u0645\u0644": 5242,
  "\u2581priv\u00e9s": 5243,
  "\u2581\u0648\u0627\u0644\u0648\u0644\u0627\u064a\u0627\u062a": 5244,
  "origine": 5245,
  "\u2581\u0647\u0627\u0645": 5246,
  "\u2581\u0644\u0644\u0625\u062f\u0627\u0631\u0629": 5247,
  "41": 5248,
  "ul": 5249,
  "\u2581gros": 5250,
  "32": 5251,
  "\u2581Su\u00e8de": 5252,
  "96": 5253,
  "\u2581principale": 5254,
  "\u2581\u0648\u0644\u0646": 5255,
  "\u2581\u0644\u0627\u062d\u0642\u0627": 5256,
  "\u2581\u0627\u0644\u0645\u0646\u0627\u0632\u0639\u0627\u062a": 5257,
  "\u2581Ayant": 5258,
  "\u2581fonctionnaire": 5259,
  "\u2581v": 5260,
  "\u2581rang": 5261,
  "\u2581serais": 5262,
  "\u2581\u0627\u0644\u0627\u0646\u0636\u0645\u0627\u0645": 5263,
  "\u2581locale": 5264,
  "\u2581\u0641\u0647\u0648": 5265,
  "\u2581\u0627\u0639\u062a\u0628\u0627\u0631\u0647\u0627": 5266,
  "\u2581\u0627\u0644\u0646\u0632\u0627\u0639\u0627\u062a": 5267,
  "\u2581\u0634\u062a\u0649": 5268,
  "\u2581\u0627\u0646\u062a\u062e\u0627\u0628": 5269,
  "\u2581\u0645\u0645\u062b\u0644\u0648": 5270,
  "\u2581Ta": 5271,
  "\u2581neuf": 5272,
  "\u258112.": 5273,
  "\u2581\u0645\u062c\u0645\u0648\u0639\u0627\u062a": 5274,
  "\u2581\u062a\u0631\u063a\u0628": 5275,
  "\u2581opinion": 5276,
  "\u064a\u0647\u0627": 5277,
  "\u2581\u0625\u062a\u0627\u062d\u0629": 5278,
  "\u2581syrienne": 5279,
  "gouvernemental": 5280,
  "\u25812010\u060c": 5281,
  "\u2581conforme": 5282,
  "\u2581\u064a\u0633\u062a\u0637\u064a\u0639": 5283,
  "_": 5284,
  "auteur": 5285,
  "\u2581\u062f\u0648\u0631\u0627": 5286,
  "\u2581\u0627\u0644\u062f\u062e\u0648\u0644": 5287,
  "\u2581agricoles": 5288,
  "v": 5289,
  "\u2581\u0631\u0623\u064a\u062a": 5290,
  "\u2581\u0646\u0645\u0648": 5291,
  "\u25812011,": 5292,
  "\u2581\u0648\u0627\u0644\u062f\u0639\u0645": 5293,
  "ic": 5294,
  "\u2581\u062c\u0648": 5295,
  "\u2581associations": 5296,
  "\u2581tiendra": 5297,
  "\u2581Croatie": 5298,
  "\u2581atelier": 5299,
  "77": 5300,
  "\u2581\u0648\u0627\u0644\u062b\u0644\u0627\u062b\u064a\u0646": 5301,
  "\u062f\u0648\u0646": 5302,
  "\u2581prioritaires": 5303,
  "dire": 5304,
  "\u2581\u0627\u0644\u063a\u0630\u0627\u0626\u064a": 5305,
  "\u2581change": 5306,
  "\u2581r\u00e9affirm\u00e9": 5307,
  "it\u00e9": 5308,
  "\u2581\u0627\u0644\u0625\u062f\u0645\u0627\u062c": 5309,
  "\u2581valoir": 5310,
  "\u2581t\u00f4t": 5311,
  "\u2581\u0644\u062f\u064a\u0647\u0645": 5312,
  "\u2581d\u00e9coulant": 5313,
  "el": 5314,
  "64": 5315,
  "49": 5316,
  "\u2581\u0633\u0648\u0621": 5317,
  "que": 5318,
  "\u2581\u0627\u0644\u063a\u0630\u0627\u0621": 5319,
  "\u2581\u0627\u0644\u0645\u0644\u0627\u062d\u0638\u0627\u062a": 5320,
  "\u2581\u062d\u0648\u0627\u0631": 5321,
  "\u2581pr\u00e9voir": 5322,
  "\u2581\u0648\u062a\u0646\u0638\u064a\u0645": 5323,
  "\u2581mot": 5324,
  "\u2581\u0642\u0644\u0642": 5325,
  "\u2581\u0635\u0627\u062d\u0628\u0629": 5326,
  "\u2581\u064a\u0631\u0649": 5327,
  "\u2581Darfour": 5328,
  "\u2581\u0627\u0644\u0645\u0633\u062a\u062e\u062f\u0645\u0629": 5329,
  "\u2581\u062a\u0644\u0642\u064a": 5330,
  "\u2581\u0627\u0644\u0645\u0646": 5331,
  "\u25811999.": 5332,
  "\u2581isra\u00e9liennes": 5333,
  "\u2581institution": 5334,
  "\u2581comportement": 5335,
  "\u2581tiens": 5336,
  "\u2581\u0648\u0637\u0644\u0628\u062a": 5337,
  "\u2581\u0627\u0644\u062a\u0623\u0645\u064a\u0646": 5338,
  "\u2581t\u00e9l\u00e9": 5339,
  "\u2581\u0627\u0644\u0627\u0642\u062a\u0631\u0627\u062d": 5340,
  "\u2581\u0627\u0644\u0634\u0641\u0627\u0641\u064a\u0629": 5341,
  "\u0627\u062c": 5342,
  "int\u00e9gration": 5343,
  "\u2581\u0627\u0644\u0645\u0639\u0648\u0646\u0629": 5344,
  "\u2581\u062d\u0635\u0648\u0644": 5345,
  "21": 5346,
  "\u2581Coop\u00e9ration": 5347,
  "\u2581atteinte": 5348,
  "\u25816-": 5349,
  "37": 5350,
  "\u00e9es": 5351,
  "\u2581comit\u00e9s": 5352,
  "\u2581audit": 5353,
  "\u2581journ\u00e9e": 5354,
  "\u2581\u0633\u0648\u0642": 5355,
  "\u2581commissaires": 5356,
  "\u2581r\u00e9pondu": 5357,
  "\u2581\u0627\u0644\u062a\u062d\u0642\u064a\u0642\u0627\u062a": 5358,
  "\u2581\u0627\u0644\u0642\u0628\u0636": 5359,
  "\u2581d\u00e9sertification": 5360,
  "\u2581pensais": 5361,
  "\u2581\u0644\u0644\u0641\u0631\u064a\u0642": 5362,
  "\u2581venu": 5363,
  "\u2581tendance": 5364,
  "\u062c\u062f": 5365,
  "\u2581\u0648\u0645\u0646\u0639": 5366,
  "suite": 5367,
  "\u258173": 5368,
  "\u2581\u062c\u062f": 5369,
  "\u2581ind\u00e9pendante": 5370,
  "\u2581pouvaient": 5371,
  "\u0639\u0644\u0649": 5372,
  "\u2581\u0627\u0644\u0645\u062d\u0627\u0643\u0645\u0629": 5373,
  "\u2581\u0627\u0644\u0645\u0642\u0628\u0644": 5374,
  "\u2581\u062a\u062d\u0648\u064a\u0644": 5375,
  "\u2581\u0642\u062f\u0631\u0647\u0627": 5376,
  "\u2581arrive": 5377,
  "\u2581\u0627\u0644\u0645\u062f\u0631\u0633\u0629": 5378,
  "am\u00e9liorer": 5379,
  "\u2581sites": 5380,
  "\u2581r\u00e9cente": 5381,
  "\u2581\u0633\u0644\u0633\u0644\u0629": 5382,
  "\u2581stup\u00e9fiants": 5383,
  "\u2581con": 5384,
  "\u2581permanents": 5385,
  "\u2581\u0648\u0645\u0646\u0638\u0645\u0627\u062a": 5386,
  "\u2581\u0627\u0644\u0641\u0636\u0627\u0626\u064a\u0629": 5387,
  "\u2581\u0625\u0644\u063a\u0627\u0621": 5388,
  "\u0645\u0646\u0638\u0648\u0645\u0629": 5389,
  "\u2581\u0627\u0644\u062d\u0636\u0631\u064a\u0629": 5390,
  "li": 5391,
  "\u2581\u0628\u0627\u0639\u062a\u0645\u0627\u062f": 5392,
  "\u2581\u0648\u0633\u064a\u0644\u0629": 5393,
  "\u2581Prend": 5394,
  "\u2581Vraiment": 5395,
  "\u2581d\u00e9marche": 5396,
  "\u2581armements": 5397,
  "\u2581\u0627\u0644\u0646\u0634\u0627\u0637": 5398,
  "\u2581pi\u00e8ces": 5399,
  "\u2581\u0627\u0644\u062a\u0635\u062d\u0631": 5400,
  "\u2581bases": 5401,
  "\u064a\u0627\u0646": 5402,
  "\u2581mouvements": 5403,
  "\u2581Nig\u00e9ria": 5404,
  "ine": 5405,
  "\u2581\u0648\u0627\u0644\u062e\u0645\u0633\u0648\u0646": 5406,
  "\u2581\u0627\u0639\u062a": 5407,
  "\u2581\u0631\u0627\u0628\u0639\u0627": 5408,
  "\u2581\u0627\u0644\u063a": 5409,
  "\u2581\u0662\u0662": 5410,
  "\u0644\u0628": 5411,
  "\u2581\u0623\u0637\u0631\u0627\u0641": 5412,
  "\u2581diff\u00e9rends": 5413,
  "\u062a\u0648\u0642\u064a\u0639": 5414,
  "\u2581effort": 5415,
  "\u2581informer": 5416,
  "24": 5417,
  "\u2581applicable": 5418,
  "\u0636\u0631\u0648\u0631\u0629": 5419,
  "\u2581limite": 5420,
  "\u2581\u0627\u0644\u0627\u0633\u062a\u0646\u062a\u0627\u062c\u0627\u062a": 5421,
  "\u2581\u0628\u0644\u062f\u064a": 5422,
  "\u2581\u062a\u062d\u062b": 5423,
  "\u2581\u0623\u062f\u0627\u0629": 5424,
  "\u2581\u0648\u0644\u0647\u0630\u0627": 5425,
  "\u0648\u0636": 5426,
  "\u2581\u0627\u062a\u0628\u0627\u0639": 5427,
  "\u2581\u0645\u0648\u0627\u0642\u0639": 5428,
  "\u2581\u0648\u0631\u0627\u0621": 5429,
  "\u25812,": 5430,
  "\u2581\u0648\u0627\u0633\u062a\u062e\u062f\u0627\u0645": 5431,
  "\u2581\u0642\u0627\u0639\u0629": 5432,
  "\u2581appliqu\u00e9es": 5433,
  "\u2581uniquement": 5434,
  "\u2581Adoption": 5435,
  "57": 5436,
  "\u2581\u0627\u0644\u0643\u0648\u064a\u062a": 5437,
  "\u2581d\u00e9cide": 5438,
  "\u2581\u0623\u0641\u0631\u0642\u0629": 5439,
  "\u2581fini": 5440,
  "\u2581simple": 5441,
  "\u2581modification": 5442,
  "\u2581\u0627\u0644\u062c\u0645\u0647\u0648\u0631": 5443,
  "\u2581\u0645\u0635\u062f\u0631": 5444,
  "\u2581arm\u00e9": 5445,
  "\u2581\u0627\u0644\u0627\u0633\u062a\u0639\u0645\u0627\u0631": 5446,
  "\u2581\u0627\u0644\u0641\u0639\u0627\u0644\u0629": 5447,
  "\u2581\u00c9t": 5448,
  "\u2581\u0627\u0644\u0633\u0641\u064a\u0631": 5449,
  "\u064a\u0642": 5450,
  "\u2581enseignements": 5451,
  "\u2581\u062c\u0647\u0627\u0632": 5452,
  "\u2581\u062e\u0637\u064a\u0631\u0629": 5453,
  "\u2581\u0627\u0644\u0627\u0646\u062a\u062e\u0627\u0628\u064a\u0629": 5454,
  "\u2581\u0627\u0644\u0642\u0633\u0631\u064a": 5455,
  "\u2581consiste": 5456,
  "\u2581\u0627\u0644\u0625\u062d\u0635\u0627\u0626\u064a\u0629": 5457,
  "\u2581\u0637\u0648\u064a\u0644": 5458,
  "\u2581arr\u00eat\u00e9": 5459,
  "\u2581\u062f\u0639\u0648\u0629": 5460,
  "\u2581\u0645\u0646\u062a\u0635\u0641": 5461,
  "\u2581\u0643\u0628\u0627\u0631": 5462,
  "\u2581mondiaux": 5463,
  "\u2581\u0639\u0644": 5464,
  "\u2581autoris\u00e9": 5465,
  "\u2581\u0627\u0644\u0639\u0642\u0648\u062f": 5466,
  "\u2581\u0645\u0645\u0627\u062b\u0644\u0629": 5467,
  "\u2581\u0627\u0644\u0645\u0630\u0643\u0648\u0631": 5468,
  "\u2581\u0627\u0644\u0641\u0639\u0644\u064a\u0629": 5469,
  "\u2581\u0627\u0644\u0628\u0627\u0644\u063a\u0629": 5470,
  "\u2581\u0645\u0624\u0634\u0631\u0627\u062a": 5471,
  "\u2581\u0645\u0645\u0627\u0631\u0633\u0627\u062a": 5472,
  "\u2581massive": 5473,
  "\u2581disposer": 5474,
  "\u2581brut": 5475,
  "42": 5476,
  "\u2581\u0627\u0644\u0645\u0635\u062f\u0631": 5477,
  "\u2581associ\u00e9s": 5478,
  "\u2581perspective": 5479,
  "\u2581\u0627\u0644\u062d\u0641\u0627\u0638": 5480,
  "\u2581\u0627\u0644\u0633\u062c\u0648\u0646": 5481,
  "\u2581r\u00e9paration": 5482,
  "\u2581\u0627\u0644\u0623\u0641\u0636\u0644": 5483,
  "31": 5484,
  "\u2581\u0627\u0644\u0643\u0631\u0628\u0648\u0646": 5485,
  "\u2581\u0644\u0644\u062a\u0646\u0641\u064a\u0630": 5486,
  "\u2581r\u00e9gissant": 5487,
  "\u2581port\u00e9": 5488,
  "abord": 5489,
  "\u2581\u064a\u0631\u062f": 5490,
  "\u2581\u0642\u0628\u0648\u0644": 5491,
  "\u2581\u062a\u0639\u0642\u062f": 5492,
  "\u2581\u0634\u0623\u0646\u0647\u0627": 5493,
  "\u2581\u0627\u0644\u0623\u062c\u0647\u0632\u0629": 5494,
  "\u2581\u062a\u0648\u062c\u064a\u0647\u064a\u0629": 5495,
  "\u2581enregistr\u00e9": 5496,
  "\u2581\u062a\u0642\u062f\u0645\u0647\u0627": 5497,
  "\u2581constitution": 5498,
  "\u2581Chef": 5499,
  "\u2581\u0628\u0641\u0639\u0627\u0644\u064a\u0629": 5500,
  "\u2581mobiliser": 5501,
  "\u2581D\u00e9sol\u00e9": 5502,
  "\u0628\u0627\u0644": 5503,
  "\u2581Services": 5504,
  "CRP": 5505,
  "W": 5506,
  "\u2581Ha\u00efti": 5507,
  "\u2581\u062a\u0635\u0644": 5508,
  "\u2581catastrophe": 5509,
  "\u2581laisse": 5510,
  "\u2581\u062a\u062d\u0648\u0644": 5511,
  "\u2581\u0627\u0644\u062c\u0644\u0633\u0627\u062a": 5512,
  "\u2581\u0645\u0642\u062f\u0645\u0629": 5513,
  "\u0633\u0627\u0645": 5514,
  "\u2581\u0627\u0644\u062c\u064a\u0634": 5515,
  "\u2581attaques": 5516,
  "\u0645\u0627\u0631": 5517,
  "\u2581\u0639\u0627\u0644\u0645\u064a": 5518,
  "\u2581Voil\u00e0": 5519,
  "\u2581\u0627\u0644\u062a\u0639\u0644\u064a\u0645\u064a\u0629": 5520,
  "\u2581\u0648\u062a\u0637\u0644\u0628": 5521,
  "\u2581\u0628\u0627\u0644\u0623\u0633\u0644\u062d\u0629": 5522,
  "83": 5523,
  "\u2581\u0627\u0644\u0641\u0642\u0631\u062a\u064a\u0646": 5524,
  "\u2581\u0648\u0627\u0644\u062a\u0642\u064a\u064a\u0645": 5525,
  "\u2581Lors": 5526,
  "\u2581voisins": 5527,
  "\u2581munitions": 5528,
  "\u2581\u0627\u0644\u062a\u0648\u0627\u0644\u064a": 5529,
  "\u0669\u0661": 5530,
  "\u2581\u0648\u0627\u0644\u0633\u064a\u0627\u0633\u0627\u062a": 5531,
  "\u0623\u0646\u062a": 5532,
  "\u2581\u0627\u0644\u0634\u0643\u0644": 5533,
  "56": 5534,
  "\u2581baisse": 5535,
  "\u2581\u0647\u064a\u0643\u0644": 5536,
  "\u2581\u0627\u0644\u0645\u0646\u0642\u062d\u0629": 5537,
  "pprovisionnement": 5538,
  "\u0633\u0627": 5539,
  "\u2581fabrication": 5540,
  "\u2581orientations": 5541,
  "\u2581\u0627\u0644\u0645\u0628\u0627\u0644\u063a": 5542,
  "\u2581\u064a\u0648\u0641\u0631": 5543,
  "\u2581\u0628\u0634\u062f\u0629": 5544,
  "\u0628\u0627\u0631": 5545,
  "\u2581commerciaux": 5546,
  "\u2581accept\u00e9": 5547,
  "\u2581budg\u00e9taire": 5548,
  "\u2581\u0648\u062a\u0634\u062c\u064a\u0639": 5549,
  "\u2581\u062a\u0628\u062f\u0623": 5550,
  "\u2581anniversaire": 5551,
  "\u2581indemnisation": 5552,
  "33": 5553,
  "\u2581souligner": 5554,
  "\u2581\u062a\u0646\u0637\u0648\u064a": 5555,
  "\u2581campagnes": 5556,
  "\u2581prennent": 5557,
  "\u2581plaintes": 5558,
  "\u2581sauf": 5559,
  "\u2581\u0639\u0642\u0648\u0628\u0629": 5560,
  "\u2581\u0623\u0643\u062f": 5561,
  "\u2581Chambre": 5562,
  "\u2581\u0648\u0627\u0644\u062f\u0648\u0644\u064a\u0629": 5563,
  "\u2581mondiales": 5564,
  "\u2581\u0645\u0633\u0627\u0647\u0645\u0629": 5565,
  "j": 5566,
  "\u2581\u0648\u0627\u0644\u0623\u0633\u0644\u062d\u0629": 5567,
  "\u2581\u0627\u0644\u0641\u0639\u0644\u064a": 5568,
  "\u2581\u0642\u0645\u062a": 5569,
  "\u2581\u0645\u0643\u0627\u062a\u0628": 5570,
  "occasion": 5571,
  "\u2581\u062a\u0636\u0645": 5572,
  "\u0642\u0627\u0644": 5573,
  "\u2581\u0648\u0641\u0636\u0644\u0627": 5574,
  "\u2581\u0635\u0648\u0631\u0629": 5575,
  "65": 5576,
  "\u2581\u0627\u0644\u0646\u0642\u062f\u064a\u0629": 5577,
  "\u2581J\u00e9rusalem": 5578,
  "institutions": 5579,
  "\u2581\u0627\u0644\u0623\u0633\u0628\u0648\u0639": 5580,
  "\u2581\u0627\u0644\u0645\u0634\u0631\u062f\u064a\u0646": 5581,
  "Accord": 5582,
  "\u2581\u0627\u0644\u062a\u0639\u0628\u064a\u0631": 5583,
  "\u2581\u0627\u0644\u0623\u0634\u064a\u0627\u0621": 5584,
  "\u0643\u0646": 5585,
  "\u2581\u0628\u0625\u062c\u0631\u0627\u0621": 5586,
  "\u2581Syst\u00e8me": 5587,
  "\u2581\u0627\u0644\u0623\u0648\u0644\u064a": 5588,
  "\u2581\u0627\u0644\u0634\u0631\u0627\u0643\u0627\u062a": 5589,
[...]
